<unk>	0
<s>	0
</s>	0
s	-3.15051
▁Je	-3.3048
▁	-3.64085
▁pas	-3.84386
▁de	-4.0373
▁Il	-4.04952
t	-4.27417
▁est	-4.3467
▁ne	-4.35748
▁le	-4.36861
▁Tom	-4.40689
▁suis	-4.52615
▁la	-4.5423
▁un	-4.59297
à	-4.61296
▁Jai	-4.68027
▁que	-4.69327
▁a	-4.69569
▁Nou	-4.73277
▁vous	-4.76348
▁Vou	-4.83192
▁Ces	-4.85615
▁me	-4.91266
▁en	-4.97633
▁une	-4.99029
▁Tu	-5.00985
▁Elle	-5.01278
▁Ce	-5.1878
▁P	-5.27487
e	-5.42853
▁les	-5.44786
▁ce	-5.5085
▁Ne	-5.51795
▁êtes	-5.53403
a	-5.53717
▁fait	-5.58781
▁ça	-5.61002
▁te	-5.68311
▁nous	-5.68927
▁sont	-5.69076
stu	-5.71004
▁ma	-5.72934
▁faire	-5.74916
▁t	-5.75178
▁sommes	-5.77782
rès	-5.79955
tre	-5.81209
▁es	-5.84633
▁Estce	-5.87128
▁je	-5.90869
▁nest	-5.91766
▁A	-5.93432
▁mon	-5.94013
▁vo	-5.94497
Ç	-5.95256
▁pour	-6.00735
▁moi	-6.01987
▁se	-6.04738
▁veux	-6.06262
▁J	-6.06529
▁peux	-6.08704
▁tout	-6.09288
▁Le	-6.10989
▁du	-6.11187
▁des	-6.13242
▁ici	-6.14005
▁été	-6.14089
▁tu	-6.16963
▁bien	-6.17517
▁besoin	-6.18312
▁La	-6.18428
▁Qui	-6.23874
▁y	-6.27376
é	-6.29699
▁dans	-6.3133
▁Commen	-6.31556
▁Tout	-6.32722
▁qui	-6.33362
▁ton	-6.33968
▁au	-6.36089
ersonne	-6.36409
▁aller	-6.36831
ourquoi	-6.36865
▁d	-6.37137
▁si	-6.37531
▁avec	-6.39246
▁O	-6.39585
moi	-6.39622
▁toi	-6.40037
▁était	-6.40481
▁avons	-6.41591
▁cela	-6.42063
▁trop	-6.42577
▁lair	-6.42775
▁plus	-6.43718
z	-6.44051
ù	-6.45342
▁faut	-6.45801
▁vraiment	-6.4809
▁tous	-6.49086
▁nai	-6.49764
▁train	-6.51737
▁bon	-6.5194
▁être	-6.52592
r	-6.53244
▁ai	-6.5386
▁monde	-6.53913
▁sais	-6.54074
vezvous	-6.5466
▁lui	-6.5655
tesvous	-6.56593
Ê	-6.56923
▁Jaime	-6.59467
▁maintenant	-6.598
▁Que	-6.61596
▁dit	-6.65061
uisje	-6.65245
▁pense	-6.65569
▁Les	-6.66761
▁là	-6.67007
▁On	-6.70601
▁Cétai	-6.71127
▁avez	-6.71353
▁sest	-6.71415
▁ont	-6.71747
▁voiture	-6.73348
▁sur	-6.74279
▁maison	-6.7468
étais	-6.75603
▁lai	-6.75955
▁ta	-6.76246
▁va	-6.77761
▁vais	-6.77948
cette	-6.81118
▁E	-6.81335
▁dois	-6.83428
▁encore	-6.83433
▁jamais	-6.849
▁mal	-6.86924
▁cest	-6.86936
▁vu	-6.86957
▁son	-6.8743
ons	-6.87833
▁temps	-6.88202
▁beaucoup	-6.88296
▁na	-6.88348
▁toutes	-6.88553
▁as	-6.90114
▁C	-6.90119
▁peut	-6.93889
▁porte	-6.94125
ez	-6.96062
’	-6.96284
er	-6.97447
x	-6.97533
▁sens	-6.97693
ai	-6.98949
▁peu	-6.99188
▁ceci	-6.99337
▁chien	-7.00311
▁chose	-7.01269
▁voir	-7.01507
▁fais	-7.02137
▁partir	-7.03094
▁juste	-7.0317
la	-7.04094
▁fort	-7.04147
▁l	-7.0615
y	-7.07546
▁deux	-7.08288
▁rien	-7.09615
▁Qu	-7.10411
▁chez	-7.11046
▁Quel	-7.11561
▁travail	-7.12759
▁quoi	-7.1299
ny	-7.13212
st	-7.13555
▁Mon	-7.1414
ment	-7.14398
▁livre	-7.14861
▁Jadore	-7.16511
▁toujours	-7.17
▁Ma	-7.179
▁plaît	-7.17991
▁comme	-7.18496
▁men	-7.19233
▁Quelle	-7.20731
▁sil	-7.21311
▁aujourdhui	-7.22913
▁bonne	-7.23104
nt	-7.2349
▁quil	-7.23948
▁déteste	-7.2437
▁Questce	-7.2503
es	-7.26703
▁S	-7.27269
▁dun	-7.28637
▁quelque	-7.28875
▁estil	-7.29624
▁assez	-7.30155
▁prie	-7.30748
▁êtesvous	-7.30909
tte	-7.32497
▁dire	-7.32597
▁heureux	-7.32638
▁par	-7.32781
▁eu	-7.328
▁tellement	-7.33066
▁perdu	-7.33088
▁seul	-7.33879
zvous	-7.35895
À	-7.36727
▁fut	-7.41818
▁Vo	-7.42333
▁atil	-7.44109
▁nen	-7.44654
▁pris	-7.44931
▁nouveau	-7.45077
▁pouvez	-7.45784
▁Jen	-7.45931
▁parler	-7.47271
▁prêt	-7.47329
til	-7.4771
▁avoir	-7.48025
▁sa	-7.48736
▁déjà	-7.49326
▁Reste	-7.50678
▁raison	-7.50751
il	-7.51994
▁vie	-7.52082
▁mieux	-7.52196
▁aime	-7.53252
ant	-7.53714
and	-7.54127
▁peur	-7.54664
▁français	-7.55146
le	-7.56211
▁jai	-7.5634
▁Laisse	-7.56951
▁chambre	-7.5819
▁De	-7.58497
▁soit	-7.594
▁Soy	-7.59566
▁n	-7.59726
▁avait	-7.59769
euxtu	-7.59849
▁Fais	-7.59883
▁idée	-7.60671
▁N	-7.63524
▁connais	-7.63555
▁sait	-7.63938
▁dune	-7.64461
▁problème	-7.64581
▁personne	-7.64845
▁occupé	-7.65208
être	-7.65252
▁no	-7.65589
▁nêtes	-7.65634
ije	-7.67156
▁non	-7.67433
▁manger	-7.6752
nous	-7.68117
▁aussi	-7.68771
▁malade	-7.68777
▁simplement	-7.68782
▁pouvons	-7.69368
▁grand	-7.6947
▁confiance	-7.70498
▁entendu	-7.70802
▁prendre	-7.71401
▁Pou	-7.72077
toi	-7.72977
▁mère	-7.73159
▁aider	-7.73901
▁naime	-7.73923
▁Mary	-7.74057
▁En	-7.74882
▁mort	-7.7582
▁mes	-7.75852
▁lit	-7.7602
▁estce	-7.76024
▁semble	-7.77729
▁fatigué	-7.77768
▁trouvé	-7.78071
vous	-7.78396
soyez	-7.78408
u	-7.78618
▁tai	-7.78738
▁fini	-7.78762
▁daccord	-7.79649
▁vrai	-7.79921
en	-7.80248
▁nétait	-7.80361
▁parle	-7.80448
▁chance	-7.80558
▁p	-7.80724
▁Arrête	-7.8253
▁homme	-7.82779
▁senti	-7.82923
▁L	-7.83047
▁estu	-7.83409
ombien	-7.83514
▁faim	-7.8354
▁terminé	-7.83546
▁viens	-7.83673
▁trouve	-7.83816
▁quelle	-7.8387
▁soi	-7.83993
▁coup	-7.84576
▁gros	-7.84593
▁demain	-7.85828
est	-7.85901
▁heureuse	-7.86538
▁tes	-7.86542
▁tard	-7.88602
▁fille	-7.8868
▁boulot	-7.89696
▁enfants	-7.89769
▁femme	-7.89809
▁acheté	-7.90467
▁vite	-7.90997
spère	-7.91223
▁occupée	-7.93133
uillez	-7.93839
▁Ve	-7.94434
▁plu	-7.94456
▁retard	-7.95132
▁Un	-7.95156
▁dis	-7.95303
et	-7.95463
ait	-7.95533
▁même	-7.95638
▁presque	-7.96255
▁père	-7.96383
▁Soi	-7.96441
▁travaille	-7.96448
▁serai	-7.96624
▁Faites	-7.97289
▁colère	-7.97392
▁veut	-7.97775
▁main	-7.98277
▁travailler	-7.98484
▁Laissezmoi	-7.98593
▁astu	-7.98815
ezvous	-7.99636
▁seule	-7.99776
▁venir	-7.99984
▁sûr	-8.00112
▁heures	-8.00247
▁nom	-8.00268
▁chat	-8.00554
ent	-8.00787
▁passé	-8.00796
▁tête	-8.00907
▁chanter	-8.01125
▁mauvais	-8.0153
▁devrais	-8.02641
▁avezvous	-8.02983
▁mange	-8.03016
▁pourrait	-8.03233
▁difficile	-8.03276
▁Ta	-8.04283
▁sécurité	-8.04495
▁Regarde	-8.05703
▁verre	-8.0573
▁dargent	-8.05735
▁yeux	-8.058
▁grande	-8.05881
▁narrive	-8.05929
▁rester	-8.06293
▁où	-8.07059
▁Prends	-8.08126
▁sans	-8.08278
▁souvent	-8.08287
▁il	-8.08617
▁journée	-8.09528
lquun	-8.09534
▁parti	-8.09598
n	-8.1013
▁bientôt	-8.1103
▁venu	-8.11338
▁froid	-8.11397
▁Donne	-8.11422
merais	-8.11501
▁tort	-8.11646
▁facile	-8.12063
▁crois	-8.12099
▁Arrêtez	-8.12103
▁bière	-8.12146
▁pourquoi	-8.1238
▁dispose	-8.12422
▁prête	-8.12625
▁ami	-8.12899
▁Prenez	-8.13356
tôt	-8.13436
▁dehors	-8.13489
▁vieux	-8.1353
▁Tes	-8.13568
▁Va	-8.14039
▁allé	-8.14158
▁plan	-8.14201
▁garçon	-8.14718
rai	-8.14791
▁tôt	-8.14812
▁enfant	-8.14827
▁choix	-8.14829
▁lire	-8.14844
▁comment	-8.15038
▁m	-8.15044
▁toute	-8.15405
tu	-8.15413
▁fois	-8.15726
ici	-8.1589
▁chapeau	-8.16092
▁sen	-8.1625
▁nager	-8.16339
avais	-8.16452
▁partie	-8.16511
▁arrivé	-8.17031
▁étaient	-8.17648
▁dur	-8.18464
▁devons	-8.18835
▁vélo	-8.18994
▁essayé	-8.18994
▁côté	-8.18994
▁doit	-8.19001
▁leau	-8.19595
▁Allez	-8.20351
▁No	-8.20402
▁triste	-8.20449
▁thé	-8.20539
re	-8.20614
▁donné	-8.2129
▁Regardez	-8.21416
▁Ferme	-8.21872
▁Merci	-8.21872
▁mangé	-8.21879
▁étions	-8.21918
▁faites	-8.21934
▁tomber	-8.21941
▁devez	-8.21944
▁point	-8.23339
▁mourir	-8.23345
▁blessé	-8.24574
▁bizarre	-8.24835
▁largent	-8.24972
aux	-8.25127
▁laissé	-8.25212
▁musique	-8.2635
▁drôle	-8.26352
▁moment	-8.26354
▁demandé	-8.26366
▁voulais	-8.26378
▁chercher	-8.26388
▁oublié	-8.26495
ux	-8.26538
▁laide	-8.26579
▁trouver	-8.26632
▁vient	-8.26645
▁autre	-8.27145
▁compte	-8.27287
▁ten	-8.2749
▁nuit	-8.27894
▁âge	-8.27912
▁réponse	-8.28342
▁dormir	-8.28476
▁vue	-8.28521
▁fou	-8.2854
que	-8.29017
▁Est	-8.29103
▁pièce	-8.29453
▁fils	-8.29458
▁quun	-8.29506
vonsnous	-8.29747
▁content	-8.29955
ur	-8.30089
▁jour	-8.30353
▁idiot	-8.30519
▁nourriture	-8.31039
▁lheure	-8.31044
▁lécole	-8.31056
▁hier	-8.31069
▁trois	-8.31079
▁essayer	-8.31096
▁pleurer	-8.31186
▁place	-8.31234
▁dy	-8.31643
▁joue	-8.31926
▁aimé	-8.31989
▁vois	-8.32382
▁pensais	-8.32651
▁in	-8.32744
je	-8.3287
▁vis	-8.33426
stce	-8.33451
▁sera	-8.33498
▁estelle	-8.33585
l	-8.33872
▁sagit	-8.34233
▁sac	-8.34322
▁petit	-8.34441
▁vin	-8.34628
▁quelquun	-8.35133
▁aucun	-8.35513
▁dé	-8.3576
▁Aime	-8.35769
▁c	-8.35795
▁cheveux	-8.35958
▁café	-8.35962
▁voulons	-8.35964
▁peuvent	-8.35978
▁blague	-8.36007
▁savais	-8.36115
▁amis	-8.36207
▁Sa	-8.36359
▁dautre	-8.36805
▁téléphone	-8.37457
▁gagné	-8.3767
▁plait	-8.37803
▁sœur	-8.37863
ci	-8.38239
▁attendre	-8.38608
▁elle	-8.38637
▁mis	-8.38665
▁bus	-8.38851
▁jeune	-8.39155
▁Venez	-8.39333
▁Viens	-8.3934
▁photo	-8.39403
▁histoire	-8.39403
▁ville	-8.39409
▁T	-8.39434
▁sortir	-8.39624
▁marcher	-8.39817
▁cassé	-8.40504
▁V	-8.41115
▁payer	-8.41289
▁riche	-8.41659
▁fier	-8.42548
▁court	-8.42692
▁adore	-8.42767
▁ou	-8.42822
▁mauvaise	-8.42916
▁Boston	-8.42916
▁rendre	-8.43032
▁aucune	-8.43395
▁amusant	-8.43528
▁nouvelle	-8.44195
▁aide	-8.44258
▁gagner	-8.44309
▁Son	-8.44643
▁savoir	-8.44825
même	-8.4485
ont	-8.45805
▁jouer	-8.45854
▁chanson	-8.46054
eutêtre	-8.46097
▁rouge	-8.46587
▁Japprécie	-8.4666
▁après	-8.46747
▁appelé	-8.47541
▁gentil	-8.47921
▁fenêtre	-8.48011
▁Comme	-8.48188
▁chemin	-8.48503
▁entrer	-8.48527
▁déjeuner	-8.4856
▁ferai	-8.48779
▁clé	-8.49999
▁rêve	-8.50105
on	-8.50281
▁arme	-8.50408
▁prix	-8.50419
▁j	-8.5095
▁vit	-8.51067
▁regarder	-8.51356
▁Donnez	-8.5163
▁menti	-8.51766
èrent	-8.51959
▁tranquille	-8.52037
▁libre	-8.52208
û	-8.5226
▁davantage	-8.52362
▁Marie	-8.52365
▁écrit	-8.52463
▁sûre	-8.52485
▁fatiguée	-8.52977
▁chaud	-8.53386
▁navons	-8.5384
ce	-8.53899
▁médecin	-8.54107
▁mot	-8.54177
▁courir	-8.54391
▁rapidement	-8.54396
▁belle	-8.54455
▁Sil	-8.54574
▁livres	-8.54817
▁part	-8.5525
dessus	-8.55723
▁marche	-8.56037
▁laime	-8.56247
▁beau	-8.56296
▁Mes	-8.56334
▁danger	-8.56386
▁famille	-8.56398
▁manque	-8.5711
ions	-8.5742
▁arrêté	-8.57798
▁désolé	-8.57914
raisje	-8.58188
▁leur	-8.58308
▁semaine	-8.58372
▁vieille	-8.58458
▁Pour	-8.58461
▁devrions	-8.58486
▁boire	-8.58488
eur	-8.59601
ation	-8.5997
ontils	-8.59989
▁faute	-8.60453
aire	-8.60547
▁sérieux	-8.60609
▁vérité	-8.60609
▁également	-8.6061
▁calme	-8.60671
▁soir	-8.60902
▁passe	-8.60994
lezvous	-8.61413
▁fit	-8.61432
▁Me	-8.61605
▁chiens	-8.61626
▁cuisine	-8.61869
▁parfait	-8.62226
▁pu	-8.62246
▁mentir	-8.62265
conque	-8.62584
▁filles	-8.62741
▁type	-8.62763
▁feu	-8.62768
▁changé	-8.62783
▁bras	-8.62784
▁mien	-8.62786
▁film	-8.62863
▁f	-8.63061
quon	-8.63098
▁voyage	-8.63796
▁meilleur	-8.6449
▁laisse	-8.64594
▁premier	-8.65005
▁secret	-8.65006
▁gâteau	-8.65069
▁taider	-8.66241
▁chante	-8.66553
▁lait	-8.66949
▁lavons	-8.67222
▁souviens	-8.67236
▁professeur	-8.67278
▁loin	-8.67301
▁Sors	-8.67322
▁parlé	-8.67327
▁my	-8.67436
▁stylo	-8.67521
▁quel	-8.67735
▁regarde	-8.67859
▁chaussures	-8.67938
▁mains	-8.68757
ne	-8.69087
ais	-8.69185
▁montre	-8.69381
it	-8.69585
▁Jirai	-8.69612
▁désormais	-8.69614
▁ainsi	-8.69616
▁sympa	-8.69622
▁bois	-8.6967
▁commencer	-8.69716
▁Sortez	-8.70084
avoir	-8.71004
▁jusqu	-8.71422
▁rire	-8.71493
ensemble	-8.71984
▁minute	-8.71989
▁ses	-8.72004
▁rentrer	-8.72101
▁ans	-8.72365
▁boîte	-8.72405
▁fête	-8.72421
▁question	-8.72503
▁carte	-8.72736
luici	-8.72757
aije	-8.73202
▁payé	-8.73489
▁devenu	-8.73594
importe	-8.73913
▁demande	-8.74098
▁Essaie	-8.74375
▁préfère	-8.74424
▁folle	-8.74425
▁derrière	-8.74448
▁note	-8.74581
▁argent	-8.74759
▁tué	-8.75299
▁pourrais	-8.75424
▁amie	-8.76086
▁ri	-8.76133
▁rendu	-8.76457
▁bu	-8.76491
▁lont	-8.76824
▁Aucun	-8.76923
▁super	-8.76927
▁perdre	-8.76934
▁marché	-8.76948
▁suppose	-8.77153
▁Jaurai	-8.77562
▁nétai	-8.77752
▁Quelqu	-8.77895
▁danser	-8.78077
▁près	-8.78263
▁chats	-8.78329
▁dormi	-8.78566
▁marrant	-8.78933
▁arrêter	-8.79242
▁timide	-8.79488
▁attention	-8.79488
▁plaisir	-8.79491
▁cœur	-8.79597
▁allons	-8.79706
▁prudent	-8.79909
▁Te	-8.80228
▁poisson	-8.80435
▁réparer	-8.81293
iezvous	-8.81591
▁cheval	-8.82119
▁bateau	-8.82121
▁conduire	-8.82136
▁rencontrer	-8.82136
▁envie	-8.82137
▁dentre	-8.82225
▁plein	-8.82479
ir	-8.83255
▁surpris	-8.83652
▁assis	-8.83847
êtesvous	-8.84109
elle	-8.84273
▁manteau	-8.84706
▁bureau	-8.84822
▁gens	-8.84822
▁Voilà	-8.84824
▁stupide	-8.84834
▁courant	-8.84834
▁mienne	-8.84864
▁étudier	-8.84895
▁sommeil	-8.84938
▁debout	-8.84948
▁sale	-8.85298
▁rend	-8.85304
▁avocat	-8.85859
▁surprise	-8.86014
▁dirai	-8.86031
▁grosse	-8.8606
▁sent	-8.86676
▁voulez	-8.87569
▁apprécié	-8.876
▁dîner	-8.876
▁endroit	-8.87602
▁commencé	-8.87611
▁compris	-8.87786
▁lu	-8.87799
ontelles	-8.8817
▁désolée	-8.88364
▁Dis	-8.88989
▁heure	-8.89373
▁Lavezvous	-8.89683
▁Dev	-8.89754
intenant	-8.90133
▁Allons	-8.90317
▁reste	-8.90415
▁Dieu	-8.90457
▁reçu	-8.90457
▁peine	-8.90457
▁complètement	-8.9046
▁cétait	-8.9047
▁Se	-8.90479
▁chemise	-8.90485
▁menteur	-8.9049
▁regardé	-8.90546
is	-8.91029
▁entendre	-8.91161
▁choses	-8.91388
ier	-8.9158
▁jeu	-8.91784
▁navai	-8.91852
▁erreur	-8.91975
▁long	-8.92034
▁Ton	-8.92034
▁re	-8.92035
▁propre	-8.92215
▁satisfait	-8.92315
▁génial	-8.92485
▁marié	-8.92515
o	-8.93013
▁Tou	-8.93048
▁làbas	-8.93398
▁seconde	-8.93398
▁dingue	-8.93444
▁Ri	-8.93457
▁contre	-8.935
lent	-8.93532
âmes	-8.93673
▁peutêtre	-8.93828
able	-8.93947
▁sous	-8.94025
▁fus	-8.94043
▁règles	-8.9479
▁différent	-8.94936
▁parole	-8.95024
▁frère	-8.95315
rent	-8.95368
▁intelligent	-8.95451
là	-8.95635
▁laisser	-8.9579
▁contente	-8.95985
▁né	-8.96374
age	-8.9639
▁fallu	-8.96428
▁lintérieur	-8.96428
▁papier	-8.96428
▁incroyable	-8.96428
▁possible	-8.96428
▁daide	-8.9643
▁manqué	-8.96433
▁lunettes	-8.96436
▁obtenu	-8.96442
▁douche	-8.96446
▁ferais	-8.96462
▁faux	-8.96469
▁liste	-8.96475
au	-8.96482
▁parents	-8.96507
▁soin	-8.96543
▁utiliser	-8.96596
▁volé	-8.96682
▁clés	-8.96954
▁réveillé	-8.97215
▁prêtes	-8.97352
▁pouvais	-8.97756
▁rencontré	-8.97845
▁souci	-8.98355
▁tant	-8.98404
▁lun	-8.98646
▁commence	-8.98876
▁télé	-8.98924
▁cet	-8.98971
▁Garde	-8.99343
▁avion	-8.99485
▁message	-8.99556
▁chaise	-8.99557
▁cadeau	-8.99561
▁espoir	-8.99562
▁affaires	-8.99663
▁Quastu	-8.99722
▁tour	-8.99725
▁taille	-8.99771
▁parviens	-9.00045
▁Attends	-9.00219
▁nouvelles	-9.0051
▁dites	-9.00725
▁chouette	-9.01248
▁bébé	-9.01251
▁deau	-9.01471
c	-9.01482
▁étais	-9.01854
▁table	-9.01992
▁prudente	-9.02302
▁pied	-9.02399
▁prêts	-9.02667
▁immédiatement	-9.02779
▁dernière	-9.02779
▁bruit	-9.02779
▁quand	-9.02802
▁gentille	-9.02803
▁emploi	-9.02822
▁quelques	-9.02992
▁neuf	-9.03061
▁ces	-9.03202
▁pommes	-9.03328
▁ouverte	-9.0361
▁Passe	-9.03648
▁pieds	-9.03757
▁tiré	-9.04063
▁tombé	-9.0426
▁veu	-9.04673
▁devrait	-9.04865
▁noir	-9.05067
▁petite	-9.05446
▁fonctionne	-9.05934
▁croire	-9.0612
▁donner	-9.06159
▁Essayez	-9.06172
▁nez	-9.06181
▁Quavezvous	-9.06225
▁arrive	-9.06282
▁Dismoi	-9.06311
▁mettre	-9.065
▁avais	-9.06745
▁Ét	-9.06796
▁fi	-9.06879
i	-9.07107
▁ouvert	-9.07409
▁mont	-9.08122
▁comprends	-9.08394
▁décidé	-9.08455
▁aidé	-9.08538
▁endormi	-9.08549
▁amies	-9.08726
▁goût	-9.08959
▁tuer	-9.09113
▁risque	-9.09183
▁rappelle	-9.09314
▁neige	-9.09367
▁retour	-9.09449
▁navez	-9.09528
▁preuve	-9.09561
▁vôtre	-9.09561
▁guerre	-9.09561
▁amoureux	-9.09565
▁lundi	-9.0957
▁coupable	-9.0962
▁vide	-9.09628
▁oui	-9.09648
▁demander	-9.09665
nglais	-9.09765
▁fis	-9.09963
▁lune	-9.10274
▁avance	-9.10389
▁morte	-9.10444
▁idiote	-9.11051
▁jours	-9.11864
▁attrapé	-9.12177
▁lumière	-9.12208
▁réussi	-9.12438
onsnous	-9.12446
▁pomme	-9.12542
▁delle	-9.13044
▁connaît	-9.13092
▁bicyclette	-9.13132
▁télévision	-9.13132
▁taxi	-9.13133
▁longue	-9.13154
▁soif	-9.13161
▁sujet	-9.13191
ique	-9.1336
▁venue	-9.1352
▁coûte	-9.13757
sez	-9.13762
▁Attendez	-9.13766
▁Mets	-9.13783
▁meilleure	-9.13983
▁peutil	-9.14115
▁continu	-9.14166
▁donna	-9.1453
▁invité	-9.14775
ie	-9.14926
▁sauvé	-9.1512
▁resté	-9.1534
▁vraie	-9.15425
ndre	-9.15503
▁présent	-9.15815
h	-9.15822
▁embrassé	-9.15868
▁étudiant	-9.16014
▁préparé	-9.1602
▁excuses	-9.16021
▁apprécie	-9.16306
▁lis	-9.16402
agitil	-9.16719
▁patron	-9.16818
▁décision	-9.16836
▁jaloux	-9.16836
▁silencieux	-9.16836
▁tennis	-9.16836
▁cher	-9.16851
▁hors	-9.16897
▁couru	-9.17059
▁seulement	-9.17116
▁honnête	-9.17204
▁soucie	-9.17234
▁allée	-9.17569
▁vont	-9.18109
▁M	-9.18221
▁dure	-9.18592
aient	-9.18738
▁plaisante	-9.18875
▁but	-9.19392
▁dépourvu	-9.19519
▁prends	-9.19691
▁dérange	-9.19792
▁enseignant	-9.19812
▁autres	-9.19865
▁droit	-9.20089
▁maider	-9.20345
▁cours	-9.2035
ui	-9.20421
ommesnous	-9.2057
▁journal	-9.20678
▁jalouse	-9.20682
▁mensonge	-9.20682
▁suffisamment	-9.20682
▁vacances	-9.20682
▁entièrement	-9.20682
▁siège	-9.20682
▁faible	-9.20682
▁voulait	-9.20688
▁manière	-9.20694
▁Jarrive	-9.20708
▁battre	-9.20759
▁étiez	-9.20805
▁couteau	-9.20818
▁Mettez	-9.20873
▁Moi	-9.20992
▁doute	-9.21154
▁h	-9.21691
▁équipe	-9.21714
quel	-9.21916
▁sommesnous	-9.2222
▁vent	-9.22246
▁ira	-9.23314
tion	-9.23385
▁important	-9.234
▁fermé	-9.23431
▁vas	-9.23464
▁certain	-9.23597
lors	-9.23746
▁amusé	-9.23784
▁lettre	-9.24377
▁rapide	-9.24604
▁savez	-9.24644
▁camion	-9.24682
▁commandé	-9.24682
▁viande	-9.24682
▁appareil	-9.24682
▁pause	-9.24685
▁lentement	-9.24701
▁marrêter	-9.24724
▁classe	-9.24761
▁gagne	-9.24826
▁affaire	-9.2483
▁visage	-9.24868
▁savons	-9.24906
▁moins	-9.24934
aller	-9.24957
▁service	-9.25088
▁taime	-9.25186
▁dici	-9.25209
lui	-9.25653
▁souhaite	-9.25835
ton	-9.26223
▁F	-9.26498
▁bonnes	-9.26756
▁compter	-9.27481
▁vend	-9.2759
te	-9.2771
▁seules	-9.27822
▁contrarié	-9.2784
▁bas	-9.27936
us	-9.28029
▁arriver	-9.28089
▁crayon	-9.28207
▁vol	-9.28492
▁mavez	-9.28569
▁Sai	-9.28708
▁mesure	-9.28718
ette	-9.28724
forme	-9.28731
▁étrange	-9.28789
▁Retourne	-9.28849
▁pouvoir	-9.2885
▁fallait	-9.28852
▁possède	-9.28853
▁soleil	-9.28856
▁probablement	-9.2887
▁dangereux	-9.28873
▁dispar	-9.28881
▁Montremoi	-9.28893
▁robe	-9.28907
▁bain	-9.28918
▁fumer	-9.28978
▁Gardez	-9.2899
▁Ditesmoi	-9.28993
▁fil	-9.29165
▁quiconque	-9.292
▁voyager	-9.29229
▁Apporte	-9.29272
▁voudrais	-9.29315
▁sontils	-9.29377
▁poids	-9.29383
▁contrariée	-9.29867
▁b	-9.29884
▁unique	-9.30014
ité	-9.30299
▁sorti	-9.30439
▁Par	-9.30481
oi	-9.30515
▁suite	-9.3069
▁sentie	-9.30818
▁ador	-9.31027
eux	-9.31119
té	-9.31323
▁Pense	-9.31559
▁garde	-9.31959
▁cru	-9.32041
▁Parle	-9.32377
▁elles	-9.32401
▁saoul	-9.32552
▁Continue	-9.33041
sse	-9.33095
▁fière	-9.33108
▁simple	-9.33135
▁chef	-9.33196
▁làdedans	-9.33196
▁naïf	-9.33196
▁œil	-9.33196
▁magasin	-9.33196
▁confectionné	-9.33206
▁allez	-9.33241
▁cloche	-9.33247
▁talent	-9.33363
▁fermer	-9.33381
▁devriez	-9.33536
rais	-9.33541
▁quitté	-9.33543
▁faisait	-9.33589
▁ouvrir	-9.33633
▁cha	-9.33697
imezvous	-9.33862
▁garder	-9.3398
▁faisons	-9.34045
▁école	-9.34206
▁sy	-9.34294
▁flics	-9.34489
riezvous	-9.34549
▁Pas	-9.34828
ard	-9.34846
▁avant	-9.34879
▁travers	-9.35376
telle	-9.3573
▁Jentend	-9.36296
▁normal	-9.36501
▁haut	-9.36629
▁seuls	-9.36641
▁envoyé	-9.37092
▁habite	-9.37151
▁changer	-9.37306
▁D	-9.37537
▁paresseu	-9.37703
▁eux	-9.37728
▁responsable	-9.37742
▁Choisis	-9.37742
▁dernier	-9.37742
▁santé	-9.37746
▁rarement	-9.37747
▁savait	-9.37772
▁trente	-9.37777
▁actuellement	-9.37794
▁lieu	-9.37814
▁voulezvous	-9.37819
▁combien	-9.37863
▁occupés	-9.37943
▁ressemble	-9.38036
f	-9.38078
▁garçons	-9.38114
▁sontelles	-9.38199
▁Faisons	-9.38325
rionsnous	-9.39081
▁mariée	-9.39259
▁passer	-9.39291
▁blessée	-9.3948
temps	-9.39797
ujourdhui	-9.40386
▁viendra	-9.40541
de	-9.4088
attendre	-9.40933
▁vivant	-9.40993
▁prévenu	-9.41191
▁laissée	-9.4137
▁ty	-9.41454
▁fume	-9.41616
▁choisi	-9.4166
d	-9.41686
▁touché	-9.41758
▁Ouvre	-9.42346
▁sérieuse	-9.4242
▁Thomas	-9.42504
▁langue	-9.42504
▁lextérieur	-9.42504
▁retraite	-9.42504
▁pleut	-9.42504
▁paix	-9.42504
▁écrire	-9.42507
▁répondu	-9.42507
▁gars	-9.42507
▁pleuré	-9.42509
▁apporté	-9.4251
▁voix	-9.42514
▁douleur	-9.42515
▁exactement	-9.42516
▁fonctionné	-9.42529
▁nerveu	-9.42536
▁coucher	-9.42538
▁prendrai	-9.42551
▁abandonné	-9.42556
▁Laissez	-9.4256
▁ennuis	-9.4258
▁tasse	-9.42684
▁dix	-9.42738
▁boisson	-9.42969
▁attendu	-9.43109
pé	-9.43141
▁mi	-9.43159
uxci	-9.43179
▁lamour	-9.43364
▁sortie	-9.43416
▁veuxtu	-9.4355
▁alors	-9.43639
▁devoir	-9.43643
▁prévenue	-9.43836
▁réveillée	-9.43873
▁Dites	-9.4402
▁parlez	-9.44331
▁cassée	-9.44341
use	-9.44617
habite	-9.44686
▁Était	-9.44772
▁cuisiner	-9.44847
▁sentai	-9.44964
▁suivi	-9.44977
▁aimes	-9.45305
▁énervé	-9.45996
▁forte	-9.46479
▁golf	-9.46534
▁font	-9.46788
▁allumé	-9.46843
▁nombreu	-9.47148
▁commença	-9.47256
▁naïve	-9.47504
▁numéro	-9.47504
▁nécessaire	-9.47504
▁pizza	-9.47504
▁horrible	-9.47504
▁rhume	-9.47505
▁Bien	-9.47505
▁volontaire	-9.47507
▁Tiens	-9.47507
▁revoir	-9.47508
▁bougie	-9.47509
▁Jétudie	-9.47511
▁vers	-9.47516
▁discuter	-9.47521
▁démissionner	-9.47532
▁Montrezmoi	-9.47562
▁ordinateur	-9.47584
▁vêtements	-9.47584
▁route	-9.47591
▁abandonner	-9.47622
iez	-9.47642
▁banque	-9.47668
▁Continuez	-9.47683
▁montrer	-9.47743
▁jétais	-9.47802
▁Ouvrez	-9.4786
prit	-9.47951
▁allés	-9.48034
▁lève	-9.48115
▁pays	-9.48127
ère	-9.48131
▁Faitesle	-9.48199
▁amoureuse	-9.48227
par	-9.48232
▁Étai	-9.48278
▁nombre	-9.48299
▁nage	-9.48369
▁tombée	-9.48631
▁disposons	-9.49097
tique	-9.49127
▁portai	-9.49362
▁laissez	-9.49368
ée	-9.4952
▁manquer	-9.49562
▁courses	-9.49589
aistu	-9.49591
▁dents	-9.49616
aille	-9.49727
▁produit	-9.49766
▁nas	-9.49843
▁mec	-9.49859
zmoi	-9.49912
avant	-9.49972
▁morts	-9.50115
▁dort	-9.50257
▁touche	-9.50314
▁satisfaite	-9.50318
▁aille	-9.51437
▁effrayé	-9.51506
▁forcé	-9.51617
▁Mange	-9.51708
▁prison	-9.51732
▁japonais	-9.51738
▁méchant	-9.51965
▁devoirs	-9.52033
▁Demande	-9.52052
▁pouvai	-9.52178
▁change	-9.5229
▁nu	-9.52379
▁excuse	-9.52382
▁nerveuse	-9.52732
▁agréable	-9.52767
▁artiste	-9.52767
▁conclu	-9.52767
▁célibataire	-9.52767
▁nôtre	-9.52767
▁pantalon	-9.52767
▁pleuvoir	-9.52767
▁appris	-9.52767
▁héros	-9.52767
▁sombre	-9.52767
▁moblige	-9.52767
▁corde	-9.52768
▁utile	-9.52768
▁ivre	-9.52769
ûmes	-9.52769
▁convaincu	-9.52788
▁Bonne	-9.52789
▁marre	-9.52813
▁loupé	-9.52846
▁accident	-9.52851
▁poste	-9.52852
▁travaillé	-9.52868
▁bouger	-9.52895
▁dépêcher	-9.53032
▁sol	-9.53072
▁roman	-9.53514
▁mignon	-9.53798
▁hommes	-9.53973
▁vert	-9.54083
urieux	-9.54476
▁sauver	-9.54503
▁née	-9.54557
▁mise	-9.546
▁invitée	-9.54835
sois	-9.54892
▁souri	-9.55239
▁chaude	-9.55414
▁conseil	-9.55548
▁rapport	-9.55823
▁dos	-9.5639
▁prend	-9.56523
▁serais	-9.56549
▁repos	-9.56611
▁viré	-9.57081
▁pars	-9.57085
▁Désolé	-9.57454
▁impatient	-9.57532
▁frappé	-9.57818
▁parie	-9.57829
▁Quest	-9.57842
ntends	-9.57873
▁contact	-9.57983
▁signe	-9.58128
▁cravate	-9.58322
▁célèbre	-9.58322
▁découvert	-9.58322
▁faveur	-9.58322
▁horreur	-9.58323
▁proche	-9.58323
▁radio	-9.58324
▁honte	-9.58329
▁menteuse	-9.58331
▁Allume	-9.58334
▁brisé	-9.58354
▁salle	-9.58355
▁merci	-9.58369
▁loi	-9.58398
▁ferme	-9.58401
▁ligne	-9.58415
▁mouillé	-9.58433
▁voler	-9.58544
▁ré	-9.58565
▁tien	-9.58579
▁sauter	-9.58758
vais	-9.588
▁terre	-9.58816
▁su	-9.58831
▁mots	-9.58832
▁suisje	-9.58917
▁avaient	-9.59213
▁prouver	-9.5939
▁congé	-9.5939
▁mérite	-9.59508
▁donne	-9.59554
▁œufs	-9.59572
▁changement	-9.59606
▁poli	-9.59753
▁projet	-9.59756
lleci	-9.6
homme	-9.61191
tout	-9.6126
▁passée	-9.61298
ble	-9.61778
▁refuse	-9.62079
▁excitant	-9.62781
ière	-9.62794
▁I	-9.62805
▁vaut	-9.63057
▁détendu	-9.63157
▁lapprécie	-9.63172
▁grandi	-9.63239
▁levé	-9.63778
▁revenu	-9.64075
▁paie	-9.6417
▁Essayons	-9.64205
▁aveugl	-9.64205
▁genre	-9.64205
▁liquide	-9.64205
▁portefeuille	-9.64205
▁reproche	-9.64205
▁échoué	-9.64205
▁accepté	-9.64205
▁vivre	-9.64205
▁Reviens	-9.64207
▁grossier	-9.64211
▁furent	-9.64211
▁réfléchir	-9.64219
▁toilette	-9.64238
▁sport	-9.64265
▁devant	-9.643
▁sors	-9.64316
▁parc	-9.64354
▁reposer	-9.64356
▁chanceux	-9.64389
▁continuer	-9.64429
▁conduit	-9.64464
▁enfin	-9.64494
▁heureuses	-9.64507
▁jolie	-9.64687
▁Tenez	-9.64715
▁véritable	-9.64782
▁Dois	-9.65072
▁e	-9.65182
▁sourire	-9.65209
▁aimons	-9.65215
▁voici	-9.65397
▁fruits	-9.65436
▁saigne	-9.6544
mour	-9.65594
▁serviette	-9.65643
▁pauvre	-9.6575
▁intention	-9.65826
▁balle	-9.65869
▁remercie	-9.65928
▁sorte	-9.66239
▁comprend	-9.66298
ine	-9.66389
exemple	-9.66397
▁cherche	-9.66523
ue	-9.66868
▁propres	-9.66917
▁parfaite	-9.67025
▁pro	-9.67154
▁so	-9.67243
▁Trouve	-9.68008
▁froide	-9.68121
▁rends	-9.68255
▁trahi	-9.6841
▁nos	-9.68449
▁com	-9.68883
▁cousin	-9.69056
▁bleu	-9.6952
▁suffisant	-9.69607
ance	-9.69627
▁vastu	-9.6969
▁vérifier	-9.70009
▁pleure	-9.70052
suite	-9.70113
▁devin	-9.70141
▁perdue	-9.70181
▁visite	-9.70285
èvre	-9.70332
adresse	-9.70355
▁Si	-9.70395
ence	-9.70396
▁blanc	-9.70453
▁Assiedstoi	-9.70455
▁guitare	-9.70455
▁promenade	-9.70456
▁coin	-9.70457
▁piano	-9.70457
▁merveilleux	-9.70458
▁masseoir	-9.70458
hôtel	-9.70466
▁sucre	-9.70474
▁adorable	-9.70488
▁arrière	-9.7049
▁dessayer	-9.70496
▁sang	-9.70498
▁Monte	-9.70512
▁pluie	-9.70519
▁verrouillé	-9.70527
▁trompé	-9.70539
▁oiseaux	-9.70541
▁opinion	-9.70556
▁arrêt	-9.70562
▁lavez	-9.70586
▁cana	-9.70596
▁rendi	-9.70648
▁Allonsy	-9.70652
▁suffit	-9.70784
▁tenir	-9.70809
▁acheter	-9.70819
▁facilement	-9.70843
▁fleurs	-9.70898
▁offre	-9.70901
▁ressenti	-9.71046
▁étudiants	-9.71385
▁droite	-9.71437
▁mignonne	-9.71449
▁larme	-9.71493
▁é	-9.71508
in	-9.71687
▁étudie	-9.71718
▁risques	-9.71912
▁appeler	-9.72299
istu	-9.72299
▁endormie	-9.72351
▁dépourvue	-9.72397
▁foi	-9.72551
▁mortes	-9.72591
▁truc	-9.72665
▁rencontrés	-9.72843
▁tableau	-9.72947
▁moque	-9.73277
▁arbre	-9.73355
▁rendue	-9.7347
▁accord	-9.73561
renons	-9.74105
▁lavé	-9.7421
▁vivent	-9.74609
▁prudents	-9.7461
▁lo	-9.74773
▁prépare	-9.75004
▁fous	-9.75319
▁excité	-9.75724
▁mecs	-9.7592
▁épuisé	-9.75984
▁Jignor	-9.76046
▁tenté	-9.76082
▁déprimé	-9.76369
▁regrette	-9.76735
▁Oublie	-9.76912
▁Joue	-9.76971
▁terrible	-9.77042
▁lâche	-9.7705
▁force	-9.77085
▁compagn	-9.77097
▁Bon	-9.77108
ddition	-9.77115
▁extrême	-9.77121
▁Verrouille	-9.77121
▁animaux	-9.77121
▁décrire	-9.77121
▁emporté	-9.77121
▁groupe	-9.77121
▁malchanceux	-9.77121
▁cercle	-9.77122
▁ciel	-9.77122
▁refusé	-9.77122
▁câlin	-9.77122
▁bouche	-9.77123
▁escaliers	-9.77124
▁gérer	-9.77124
▁joindre	-9.77126
▁Asseyezvous	-9.77131
▁permettre	-9.77134
▁dami	-9.77137
▁prisonnier	-9.77139
▁sourd	-9.77142
▁environ	-9.77149
▁date	-9.77152
▁Commençons	-9.7716
uxlà	-9.77193
▁bête	-9.77215
▁parfaitement	-9.77223
▁face	-9.77225
▁battu	-9.77235
▁sentezvous	-9.77262
▁Appelez	-9.77263
llesci	-9.7728
▁chatte	-9.77316
emprunter	-9.77335
▁fera	-9.77346
▁viendrai	-9.77363
▁lever	-9.7738
▁allezvous	-9.77403
▁Montez	-9.77404
▁asseoir	-9.77419
▁clair	-9.77575
▁cesser	-9.77689
▁impatiente	-9.78229
▁tourne	-9.78404
▁oiseau	-9.78493
ntendre	-9.78558
▁allées	-9.78563
lon	-9.78658
▁g	-9.78687
▁cou	-9.787
▁partis	-9.79114
▁qu	-9.79247
▁serez	-9.7963
▁hais	-9.79759
▁devenue	-9.80048
▁dors	-9.80383
▁feriez	-9.80567
ntils	-9.80573
vec	-9.80723
▁bord	-9.8113
gique	-9.81525
▁savent	-9.81627
▁ennemi	-9.82049
▁impressionné	-9.82704
▁montré	-9.82854
▁ski	-9.83319
▁boit	-9.8342
▁porté	-9.83582
▁joli	-9.83682
elles	-9.83753
onnaissezvous	-9.83827
pendant	-9.83827
▁patient	-9.84003
▁soupe	-9.84113
▁problèmes	-9.84116
▁ment	-9.84117
spoir	-9.84244
▁injuste	-9.84264
▁Grimpe	-9.84264
▁Jusqu	-9.84264
▁bouteille	-9.84264
▁gaspille	-9.84264
▁inquiet	-9.84264
▁inutile	-9.84264
▁promesse	-9.84264
▁égoïste	-9.84264
▁vécu	-9.84265
▁biscuit	-9.84265
▁détail	-9.84265
▁oncle	-9.84265
▁choc	-9.84266
▁prévenir	-9.84267
▁fantastique	-9.84267
▁remarqué	-9.84267
▁verrai	-9.84267
▁suivre	-9.84269
▁pain	-9.8427
▁darriver	-9.84272
▁sauf	-9.84283
▁plage	-9.84284
▁courageuse	-9.84297
▁grave	-9.84298
▁Re	-9.84309
▁fiable	-9.84311
▁hurler	-9.84311
▁glace	-9.84321
▁embrasser	-9.84324
▁caché	-9.84333
▁tienne	-9.84346
▁terriblement	-9.8435
▁chanceuse	-9.84351
▁brave	-9.84353
▁attentive	-9.84373
▁serons	-9.84378
▁riv	-9.84383
▁maître	-9.84402
▁décider	-9.84568
▁sassit	-9.84574
▁mord	-9.84623
▁mari	-9.84644
▁voilà	-9.84747
▁résiste	-9.84796
▁voté	-9.84869
▁fâchée	-9.84875
▁eut	-9.8498
▁habillée	-9.85301
▁bleue	-9.85355
▁trahie	-9.85362
▁urgence	-9.85416
▁ordre	-9.85444
▁aimez	-9.85695
▁réussir	-9.86045
▁pue	-9.86081
▁correct	-9.86183
un	-9.8621
▁sel	-9.86399
main	-9.86526
▁senstu	-9.86572
▁trompe	-9.86707
▁prudentes	-9.86911
▁Qua	-9.86923
ayez	-9.86928
▁do	-9.87234
▁sage	-9.87471
aime	-9.8783
me	-9.88036
▁lessayer	-9.88085
▁jambes	-9.88172
▁on	-9.88209
▁mour	-9.88239
▁faitil	-9.88247
ément	-9.88255
p	-9.8838
▁Appelle	-9.88384
▁lignore	-9.88391
▁amusée	-9.88417
vions	-9.88484
▁maime	-9.88724
▁Arrive	-9.88897
Oh	-9.8952
▁R	-9.89813
▁correcte	-9.89925
▁reconnaissant	-9.90119
▁choqué	-9.90455
▁engagé	-9.90682
▁pressé	-9.90834
▁habillé	-9.90849
▁confiant	-9.90912
ide	-9.90978
avezvous	-9.91018
rbre	-9.9109
▁To	-9.9117
ils	-9.91235
nette	-9.91239
rice	-9.91419
▁malin	-9.91451
▁rentré	-9.91467
onnaistu	-9.91486
▁prochain	-9.91495
▁Jessaye	-9.91558
▁tirer	-9.91568
▁attend	-9.91704
▁Attrape	-9.91716
▁neiger	-9.91716
▁gare	-9.91838
▁doul	-9.91941
▁chinois	-9.91957
▁costume	-9.91957
▁impossible	-9.91957
▁intéressant	-9.91957
▁parapluie	-9.91957
▁printemps	-9.91957
▁sceptique	-9.91957
▁régime	-9.91957
▁dimanche	-9.91957
▁Signe	-9.91958
oureux	-9.9196
▁Parlons	-9.9196
▁génie	-9.9196
▁lacquisition	-9.91968
▁menace	-9.91972
▁protéger	-9.91973
▁linst	-9.91973
▁reviendrai	-9.91978
▁Jattendrai	-9.91981
▁gauche	-9.91989
▁sucré	-9.91994
▁pâle	-9.91995
▁vérifié	-9.91995
▁élevé	-9.91997
▁léger	-9.92
▁autour	-9.92003
▁comprendre	-9.92006
▁Rentre	-9.92006
▁jardin	-9.92012
▁paierai	-9.92028
▁vues	-9.92037
▁lacet	-9.92053
lleslà	-9.92059
▁skier	-9.92068
▁connaissez	-9.92071
▁objectif	-9.92074
▁appartement	-9.92084
▁énorme	-9.92086
▁sept	-9.92087
▁pire	-9.92135
▁rendrai	-9.92142
ezmoi	-9.92145
▁cessé	-9.92239
▁lemporter	-9.92251
▁rêver	-9.92289
▁laver	-9.92329
▁continua	-9.92361
▁reviens	-9.92382
▁Laissezle	-9.92385
▁bi	-9.92514
cès	-9.92539
▁sentiment	-9.92612
▁faistu	-9.92665
▁brûle	-9.9274
▁cinq	-9.92755
semblait	-9.93124
ure	-9.93179
idées	-9.93211
▁laid	-9.93212
▁lentendre	-9.93236
▁plaindr	-9.93236
▁commis	-9.93268
▁app	-9.93278
▁Rest	-9.93297
▁entre	-9.93313
▁pleine	-9.93322
▁vatil	-9.93324
▁Pourrai	-9.93327
▁invités	-9.93376
▁détendue	-9.93511
▁retourner	-9.93513
les	-9.93724
▁nier	-9.93742
▁fermée	-9.93908
▁spécial	-9.93945
▁effrayée	-9.93991
▁tombe	-9.94239
▁regarda	-9.94265
ettes	-9.94305
▁intelligente	-9.94541
pêcher	-9.94887
▁respect	-9.94983
▁laissa	-9.95096
▁fatigués	-9.95208
▁ennuyeu	-9.95236
▁frères	-9.95259
▁respecte	-9.95629
▁sauvée	-9.95737
▁jambe	-9.9589
▁grandes	-9.96007
▁différente	-9.96072
▁Contente	-9.9647
▁capable	-9.96597
mit	-9.96699
ous	-9.96721
▁form	-9.96744
▁rit	-9.9677
▁assise	-9.96991
man	-9.97068
▁Noublie	-9.97305
école	-9.97423
étranger	-9.97465
B	-9.97467
▁compt	-9.97761
▁mer	-9.97762
▁pensé	-9.97892
▁pourrions	-9.97966
▁grands	-9.98362
▁celui	-9.98418
▁vint	-9.98601
îmes	-9.98849
▁Rends	-9.98877
▁fer	-9.98907
iste	-9.98912
▁tiens	-9.98957
▁intéressé	-9.99008
ise	-9.99238
▁Écoute	-9.99262
▁dépend	-9.99545
▁per	-9.99633
laise	-9.99722
▁attraper	-9.99749
▁ravi	-9.99814
▁exact	-9.99895
▁Rendez	-10.0006
▁Suivez	-10.0013
▁parla	-10.0018
▁cruel	-10.002
▁Bois	-10.0026
inconvénient	-10.0029
▁Salut	-10.0029
▁crédule	-10.0029
▁daucun	-10.0029
▁doreille	-10.0029
▁fausse	-10.0029
▁flexible	-10.0029
▁lexamen	-10.0029
▁recherche	-10.0029
▁échec	-10.0029
▁discours	-10.0029
▁impoli	-10.0029
▁Baisse	-10.0029
▁cuit	-10.0029
▁façon	-10.0029
▁spectacle	-10.0029
▁crime	-10.0029
▁curieuse	-10.0029
▁répondre	-10.0029
icule	-10.0029
▁douce	-10.003
▁proposition	-10.003
▁Daccord	-10.003
▁crier	-10.003
▁écouté	-10.0031
▁Aidezmoi	-10.0031
▁expliquer	-10.0032
▁matin	-10.0032
▁passetemps	-10.0033
▁réveiller	-10.0034
▁lautre	-10.0034
▁Surveille	-10.0035
▁frais	-10.0035
▁barbe	-10.0039
▁délicieuse	-10.004
▁rue	-10.0041
▁Entrez	-10.0043
▁Lâchemoi	-10.0043
▁efficace	-10.0043
▁oreilles	-10.0051
▁passetil	-10.0053
▁faitesvous	-10.0054
▁denfant	-10.0055
▁zo	-10.0055
▁Oubliez	-10.0056
▁hâte	-10.006
▁Parlez	-10.0065
▁raisonnable	-10.0067
heureux	-10.0081
▁Permet	-10.0082
▁promis	-10.0091
▁connaissais	-10.0096
▁manquez	-10.0096
▁distu	-10.01
▁tapprécie	-10.011
▁lesprit	-10.0116
▁raté	-10.0124
▁libres	-10.0159
▁supplie	-10.017
▁Mangez	-10.0179
▁Cet	-10.019
viennent	-10.0193
▁japonaise	-10.0197
▁huit	-10.0198
▁Lis	-10.0228
▁bouge	-10.0233
▁paraît	-10.0238
▁connu	-10.0264
▁Laissele	-10.0268
▁lac	-10.027
▁Remettez	-10.027
▁reconnu	-10.0314
▁monté	-10.0317
▁Dispose	-10.0341
▁tient	-10.0373
▁écoute	-10.0377
ante	-10.0391
été	-10.0408
▁moyens	-10.041
▁pneu	-10.0428
▁longs	-10.0432
▁marrante	-10.0443
▁nourri	-10.0461
▁vousmême	-10.0462
▁dirais	-10.0498
▁détend	-10.05
▁règle	-10.0508
▁Suis	-10.0513
ateur	-10.0515
▁restée	-10.0536
▁hum	-10.0545
adorent	-10.0547
▁rigole	-10.0568
▁étudiante	-10.0602
▁rencontrée	-10.0624
▁pari	-10.0628
vait	-10.0641
▁ac	-10.0643
▁den	-10.0645
ire	-10.0654
▁arriv	-10.066
▁coll	-10.0662
▁puni	-10.0667
▁Apportez	-10.0668
▁celle	-10.0685
▁Disle	-10.0695
▁sauve	-10.0698
▁cartes	-10.0713
▁doct	-10.0729
▁con	-10.0732
ète	-10.0751
▁copie	-10.0758
▁trich	-10.0758
▁blessés	-10.0759
▁Passez	-10.076
ade	-10.0766
▁Cesse	-10.0767
▁bourré	-10.0767
▁fie	-10.0771
▁ferma	-10.0773
▁déçu	-10.079
▁rappel	-10.0792
▁construit	-10.0804
▁tire	-10.0807
▁habitué	-10.0853
estce	-10.0855
▁fâché	-10.0861
▁im	-10.0917
▁lave	-10.0919
▁contrôle	-10.0925
um	-10.0926
▁enc	-10.0928
▁Japon	-10.0929
▁Jattend	-10.0935
▁trouvée	-10.0937
▁propos	-10.0938
eekend	-10.0938
▁brièvement	-10.0938
▁chocolat	-10.0938
▁détudier	-10.0938
▁perplexe	-10.0938
▁pitié	-10.0938
▁possibilité	-10.0938
▁souffle	-10.0938
▁cancer	-10.0938
▁promets	-10.0938
▁billet	-10.0938
▁limite	-10.0938
▁ouvrage	-10.0938
▁moitié	-10.0938
▁donc	-10.0938
▁pleura	-10.0938
▁grossière	-10.0938
▁midi	-10.0938
▁menacé	-10.0939
diction	-10.0939
▁Aidemoi	-10.0939
▁dabord	-10.0939
▁téléphoné	-10.0939
▁corriger	-10.094
▁connaissent	-10.094
▁lherbe	-10.094
▁furieux	-10.0941
▁voulu	-10.0942
▁agir	-10.0942
▁largué	-10.0942
▁rid	-10.0942
▁hauteur	-10.0943
▁sienne	-10.0943
▁remis	-10.0944
▁disputer	-10.0944
▁démarrer	-10.0945
▁Voyons	-10.0946
▁pratique	-10.0946
▁vitesse	-10.0946
▁supporter	-10.0952
▁joué	-10.0953
▁tenu	-10.0954
▁virer	-10.0955
▁dommage	-10.0956
▁échappé	-10.0959
▁louer	-10.0959
▁effectu	-10.096
▁accepta	-10.096
▁rendezvous	-10.0962
▁bagages	-10.0962
▁dor	-10.0971
▁Sur	-10.0978
▁croit	-10.0988
▁prochaine	-10.0993
▁monter	-10.0998
▁acteur	-10.1004
▁Conduis	-10.1016
▁resterai	-10.1021
▁perdit	-10.1021
▁leurs	-10.1024
▁lavoir	-10.1033
▁ra	-10.1055
▁insta	-10.1083
▁amour	-10.1084
▁choquée	-10.1123
▁bananes	-10.1135
▁Des	-10.1145
▁enseignante	-10.1153
▁présente	-10.1158
▁cuisini	-10.116
▁regard	-10.1163
▁sourit	-10.1166
eau	-10.1173
▁connaissons	-10.1177
▁chant	-10.118
▁fatiguées	-10.1188
▁mangea	-10.1189
▁bar	-10.1223
▁vendre	-10.1228
▁acc	-10.1236
▁fin	-10.1242
▁repas	-10.1275
▁refuser	-10.1282
▁clefs	-10.1313
▁Nen	-10.1323
ch	-10.1337
astu	-10.1354
▁pri	-10.136
▁ticket	-10.1365
▁aiment	-10.1371
▁mauvaises	-10.1379
▁retourn	-10.1389
▁perds	-10.1389
▁Vi	-10.1396
▁casse	-10.1397
▁couper	-10.1404
▁sincère	-10.1419
▁rumeur	-10.1454
▁poulet	-10.1454
▁lou	-10.1464
▁couleur	-10.1479
mment	-10.149
▁moyen	-10.1493
imestu	-10.1499
▁plair	-10.1502
▁commande	-10.1506
tez	-10.1521
imité	-10.1536
apprécie	-10.1564
bri	-10.1566
▁sort	-10.1578
▁perd	-10.1586
▁aviez	-10.1599
aimerais	-10.1606
lcool	-10.1611
▁allum	-10.1641
▁souhait	-10.1647
oupée	-10.1649
▁gratuit	-10.1685
équipe	-10.1693
▁devrai	-10.17
▁conseils	-10.1705
▁licencié	-10.1711
▁séparé	-10.1713
▁souris	-10.1741
▁ailles	-10.1782
lé	-10.1788
▁arrivée	-10.1788
ich	-10.1788
▁éveillé	-10.1797
▁brûlé	-10.1798
▁dégoûtant	-10.181
▁tendu	-10.1814
▁âgé	-10.1822
▁recruté	-10.1823
▁vendu	-10.1824
▁respir	-10.1833
▁élégant	-10.1833
▁allongé	-10.1841
▁polic	-10.1862
▁profond	-10.1867
▁cul	-10.1874
qué	-10.1902
▁cause	-10.192
▁Coupe	-10.1922
mbrasser	-10.1922
▁supporte	-10.1926
▁employ	-10.1926
▁occuper	-10.1929
▁blessées	-10.193
▁ambitieu	-10.1934
▁Raconte	-10.1938
▁Attention	-10.1938
▁bibliothèque	-10.1938
▁ceinture	-10.1938
▁corps	-10.1938
▁lenseignant	-10.1938
▁renvoyé	-10.1938
▁réunion	-10.1938
▁alentour	-10.1938
▁Revenez	-10.1938
▁piège	-10.1938
▁vertige	-10.1938
▁pierre	-10.1938
▁examen	-10.1938
▁bordel	-10.1938
▁épousé	-10.1938
▁témoin	-10.1938
▁football	-10.1938
▁merveilleuse	-10.1938
▁astucieuse	-10.1938
▁désaccord	-10.1938
▁fichier	-10.1938
▁connaissance	-10.1938
▁profondément	-10.1939
▁dambi	-10.1939
▁mince	-10.1939
▁blesse	-10.1939
▁mariage	-10.194
▁débrouiller	-10.194
▁double	-10.1941
▁Vasy	-10.1941
▁talentueuse	-10.1942
▁remettre	-10.1942
▁demanda	-10.1942
▁prévu	-10.1943
▁informé	-10.1944
▁descendu	-10.1945
▁loyer	-10.1946
▁tiroir	-10.1948
▁Faisonsle	-10.195
▁cierge	-10.1955
▁inquiète	-10.1955
▁fondu	-10.1955
▁contrôler	-10.1955
▁joueur	-10.1956
▁voleur	-10.1959
▁ditesvous	-10.1961
▁neuve	-10.1962
▁fuite	-10.1965
▁vieilles	-10.1967
▁chanteur	-10.197
▁touchez	-10.197
ky	-10.197
envers	-10.1972
▁casque	-10.1972
▁avis	-10.1973
▁gras	-10.1981
▁partit	-10.1982
lution	-10.1983
▁page	-10.1985
▁allonsnous	-10.2004
▁profonde	-10.2005
▁sembl	-10.2009
▁tenue	-10.201
▁rende	-10.2027
▁travaillent	-10.2041
admire	-10.205
▁jouez	-10.2051
▁âgée	-10.2055
▁recrutée	-10.2055
▁Lét	-10.2061
lemoi	-10.2072
xpéri	-10.2072
▁tou	-10.2074
▁demi	-10.2098
▁finir	-10.211
▁parvien	-10.211
▁réjouis	-10.211
▁épuisée	-10.2117
▁méprise	-10.2126
tendit	-10.2134
▁tatil	-10.214
▁mais	-10.215
▁excitée	-10.2155
▁sien	-10.216
▁forcée	-10.2167
▁tel	-10.2168
▁cousine	-10.2171
▁saint	-10.2176
▁impressionnée	-10.2178
▁quitter	-10.2187
▁prise	-10.2193
▁fiche	-10.2205
▁Lâche	-10.2211
▁mentez	-10.2212
erais	-10.2231
▁partons	-10.2247
▁parles	-10.226
onne	-10.226
▁sentir	-10.2262
▁géniale	-10.2267
▁pa	-10.2277
ront	-10.2278
▁précipit	-10.2281
▁Entre	-10.2284
stil	-10.2286
▁hu	-10.23
▁plais	-10.2328
rgent	-10.2329
▁quitte	-10.2331
ion	-10.2345
▁épouse	-10.2373
▁aimée	-10.2388
▁entré	-10.2391
teur	-10.2401
▁penser	-10.2416
▁Nessaye	-10.2424
▁convient	-10.2434
▁famili	-10.2452
▁partirai	-10.246
▁Du	-10.2517
venir	-10.2536
▁San	-10.2538
▁ferons	-10.254
▁serré	-10.2584
▁danse	-10.2595
▁clef	-10.2605
▁année	-10.2606
▁poissons	-10.2632
cation	-10.2645
▁trucs	-10.2659
▁sain	-10.2697
▁riches	-10.2705
port	-10.2745
▁course	-10.2752
habitude	-10.2754
▁projets	-10.2761
▁pré	-10.2763
monnaie	-10.2764
▁lourd	-10.277
ntelles	-10.2771
capable	-10.2772
avance	-10.2777
▁attaqué	-10.2785
quelle	-10.2797
▁avonsnous	-10.282
▁armé	-10.2832
▁vienne	-10.2833
▁aurait	-10.286
▁conduis	-10.2865
naire	-10.2884
▁trou	-10.2885
▁doté	-10.291
▁paniqué	-10.2914
▁femmes	-10.2925
▁chic	-10.2937
ball	-10.2954
▁porter	-10.2958
▁innocent	-10.2962
▁drogué	-10.2976
anglais	-10.2981
mon	-10.2995
▁bouton	-10.3026
▁effray	-10.3029
▁servi	-10.3029
▁Essaye	-10.3032
▁sert	-10.3033
▁po	-10.3041
▁nouvel	-10.3043
▁prenez	-10.3046
▁empl	-10.3047
▁talentueu	-10.3047
▁craint	-10.3048
▁violon	-10.3049
▁Dégage	-10.3049
▁Jallai	-10.3049
▁anniversaire	-10.3049
▁astucieux	-10.3049
▁bœuf	-10.3049
▁chandail	-10.3049
▁compatis	-10.3049
▁difficulté	-10.3049
▁différence	-10.3049
▁déverrouillé	-10.3049
▁effort	-10.3049
▁failli	-10.3049
▁fauché	-10.3049
▁justice	-10.3049
▁prudemment	-10.3049
▁solitaire	-10.3049
▁écoulé	-10.3049
▁kilo	-10.3049
▁style	-10.3049
▁superbe	-10.3049
▁Dépêchetoi	-10.3049
▁poème	-10.3049
▁religi	-10.3049
▁vidéo	-10.3049
éviden	-10.3049
▁ressens	-10.3049
▁compliqué	-10.3049
▁foiré	-10.3049
▁damour	-10.3049
▁pattes	-10.305
▁partenaire	-10.305
▁blanche	-10.305
▁match	-10.305
▁maigre	-10.305
▁totalement	-10.305
▁mêle	-10.305
▁petitdéjeuner	-10.305
▁salade	-10.305
▁panne	-10.305
▁pige	-10.305
▁déjeuné	-10.3051
▁démissionné	-10.3051
▁lexercice	-10.3051
▁revenir	-10.3051
▁détestais	-10.3051
▁annulé	-10.3052
▁leva	-10.3052
▁informations	-10.3052
draistu	-10.3052
▁blâmer	-10.3053
▁précis	-10.3054
▁CD	-10.3054
▁promu	-10.3055
▁tourné	-10.3056
idence	-10.3056
▁souvrir	-10.3057
▁mentionné	-10.3058
▁boucle	-10.3059
▁guide	-10.3059
▁Toute	-10.3059
▁mentent	-10.306
▁dirigeons	-10.306
▁courageu	-10.306
▁Lâchezmoi	-10.3062
source	-10.3062
▁crié	-10.3063
▁traite	-10.3063
▁étiezvous	-10.3064
▁confus	-10.3065
▁piqué	-10.3067
▁impôts	-10.3068
▁indice	-10.3068
▁apprendre	-10.3071
▁garer	-10.3072
▁bague	-10.3079
▁brillante	-10.3079
▁défaite	-10.3079
▁capte	-10.3082
▁deviné	-10.3084
▁foutu	-10.3085
▁présenter	-10.3088
▁o	-10.309
▁chanté	-10.3093
▁péri	-10.3093
▁parais	-10.3095
rève	-10.3098
▁répondit	-10.31
▁beaux	-10.3105
▁pourraitil	-10.3108
▁Quaije	-10.311
▁manques	-10.3113
▁trouvetil	-10.312
▁sonna	-10.3125
▁orange	-10.3131
▁bienvenue	-10.3144
▁entendue	-10.3177
▁base	-10.3181
▁survivra	-10.3197
▁Demandez	-10.3206
▁voit	-10.3207
▁car	-10.3224
▁vaches	-10.3241
▁gris	-10.3244
▁utilis	-10.3267
▁portes	-10.3279
▁médi	-10.3285
▁dirige	-10.3286
▁tenter	-10.3296
▁appel	-10.3299
b	-10.3302
▁Retire	-10.3305
▁éclata	-10.3314
▁delles	-10.3319
▁fenêtres	-10.3339
▁monnaie	-10.3343
▁vieil	-10.3344
oyer	-10.3349
▁dalle	-10.3352
▁copi	-10.3356
▁embrassée	-10.3359
▁normale	-10.3373
▁chansons	-10.3391
▁constitue	-10.3393
ition	-10.3426
▁retir	-10.3469
▁retourne	-10.3475
▁resta	-10.3491
▁B	-10.3498
▁lent	-10.3511
ible	-10.3526
▁ét	-10.353
▁vive	-10.3533
▁serv	-10.3564
▁toucher	-10.3578
▁chasse	-10.3589
selle	-10.3633
▁contentes	-10.3638
aisje	-10.3656
▁étudiantes	-10.3665
▁appelée	-10.3665
▁planté	-10.3671
▁rencontrées	-10.3671
▁pousse	-10.3683
▁effronté	-10.3726
▁coule	-10.373
▁vote	-10.3733
pée	-10.3747
urez	-10.3748
▁Nouvre	-10.3751
▁parte	-10.3754
▁Porte	-10.3757
▁sûrs	-10.3768
▁mennuie	-10.3789
▁Posez	-10.3793
oir	-10.3802
▁facture	-10.3814
▁Lisez	-10.3817
▁rose	-10.3837
▁cent	-10.384
yezvous	-10.3843
▁Ten	-10.3846
▁soldat	-10.3847
▁travaillai	-10.3871
▁amusante	-10.3879
▁contents	-10.3887
lait	-10.3887
yez	-10.391
près	-10.3913
▁polie	-10.3917
▁finie	-10.3944
oiseau	-10.3981
▁vi	-10.3999
assurance	-10.4
I	-10.4022
jour	-10.4028
▁décédé	-10.404
▁crevé	-10.4054
▁permis	-10.4055
▁cas	-10.4055
▁Chante	-10.4062
▁r	-10.41
▁trouv	-10.4111
▁attei	-10.4143
▁impliqué	-10.415
▁amélioré	-10.4158
▁ruiné	-10.4158
▁doué	-10.4158
▁noyé	-10.4158
▁puissant	-10.4159
▁Mai	-10.4164
▁parl	-10.4168
▁veinard	-10.4172
▁bruyant	-10.4173
▁préfér	-10.418
▁gelé	-10.4187
▁conscient	-10.4187
▁refusa	-10.4198
▁auras	-10.4202
▁motivé	-10.4204
ffaire	-10.4205
▁restez	-10.4217
▁embarrassé	-10.4223
▁détest	-10.4254
rois	-10.4254
▁mordu	-10.4254
anche	-10.4256
▁mou	-10.4262
lie	-10.4266
▁absurd	-10.4271
▁Écris	-10.4278
▁enseigne	-10.4285
▁dét	-10.429
▁pr	-10.4291
▁actuelle	-10.4291
▁Amus	-10.4292
▁charger	-10.4292
▁suc	-10.4292
ède	-10.4296
▁maigrichon	-10.4296
ième	-10.4297
▁file	-10.4297
▁défi	-10.4298
▁égal	-10.4299
▁échapp	-10.4299
▁Amène	-10.4299
▁Écrivez	-10.4299
abilité	-10.4299
ctobre	-10.4299
▁Descends	-10.4299
▁adopté	-10.4299
▁animal	-10.4299
▁blotti	-10.4299
▁cardiaque	-10.4299
▁doigt	-10.4299
▁dépouillé	-10.4299
▁emprunté	-10.4299
▁gueule	-10.4299
▁horrifié	-10.4299
▁hypothèse	-10.4299
▁immobile	-10.4299
▁malchanceuse	-10.4299
▁membre	-10.4299
▁mouchoir	-10.4299
▁piscine	-10.4299
▁pleuvra	-10.4299
▁porc	-10.4299
▁raciste	-10.4299
▁rejeté	-10.4299
▁silencieuse	-10.4299
▁suspect	-10.4299
▁système	-10.4299
▁violence	-10.4299
▁véhicule	-10.4299
▁énigme	-10.4299
oïn	-10.4299
▁mappartient	-10.4299
▁créatif	-10.4299
▁créative	-10.4299
▁déroulé	-10.4299
▁absolu	-10.4299
▁conscience	-10.4299
▁veste	-10.4299
▁médaille	-10.4299
▁apeuré	-10.4299
▁valise	-10.4299
▁mémoire	-10.4299
▁téléviseur	-10.4299
▁chauffeur	-10.4299
▁finalement	-10.4299
▁chaussettes	-10.4299
▁suggère	-10.4299
▁société	-10.4299
▁bénisse	-10.4299
▁courrier	-10.4299
▁magnifique	-10.4299
▁gamin	-10.4299
▁augmentation	-10.43
▁peinture	-10.43
▁enfreint	-10.43
▁chevaux	-10.43
▁souvenir	-10.43
▁orteils	-10.43
▁prof	-10.4301
▁rompu	-10.4301
▁mène	-10.4301
▁végétarienne	-10.4301
▁Jimagine	-10.4301
▁sèche	-10.4302
▁Jessaierai	-10.4302
▁serviable	-10.4302
▁dessence	-10.4302
▁perte	-10.4302
▁maigrichonne	-10.4302
▁pleurait	-10.4302
▁survenu	-10.4302
▁éclaté	-10.4303
▁plaisanterie	-10.4303
▁manche	-10.4303
▁létage	-10.4303
driezvous	-10.4303
einte	-10.4303
▁remport	-10.4304
hiver	-10.4304
▁ambitieuse	-10.4305
▁patronne	-10.4305
▁mérité	-10.4306
▁appartient	-10.4307
▁soirée	-10.4308
▁bâti	-10.431
▁cacher	-10.431
▁matinal	-10.431
▁quelconque	-10.431
▁reviendra	-10.4311
▁étudié	-10.4311
▁paresseuse	-10.4312
▁divorcé	-10.4313
▁Laisseznous	-10.4315
▁débutant	-10.4319
▁fonctionner	-10.4319
▁étaistu	-10.432
▁mexcuser	-10.4322
▁plainte	-10.4323
▁souper	-10.4327
▁Vienstu	-10.4328
▁Appellemoi	-10.433
▁mur	-10.4332
mission	-10.4333
gardé	-10.4334
▁laîné	-10.4338
▁Attrapez	-10.4339
▁réaliste	-10.434
▁loup	-10.4343
▁revu	-10.4348
▁meurs	-10.4349
▁manquent	-10.4349
▁maman	-10.4353
▁plaisanter	-10.4353
▁chienne	-10.4354
▁trouvait	-10.4357
▁disponible	-10.4358
▁procéd	-10.436
▁jou	-10.4363
▁crains	-10.4381
▁co	-10.4382
▁veutil	-10.439
▁dépose	-10.4394
▁avaitil	-10.4397
▁épaule	-10.4397
xpliquer	-10.4402
▁Dépêch	-10.4419
▁élégante	-10.4434
▁hôpita	-10.4436
▁Commence	-10.4438
▁secour	-10.4438
▁dispos	-10.444
▁instituteur	-10.4445
▁vus	-10.4446
▁confiante	-10.4477
appeler	-10.4485
▁Jadmet	-10.4493
▁allumée	-10.4499
▁mentale	-10.4505
▁touchée	-10.4508
▁tranquilles	-10.4517
▁lapins	-10.4518
▁reposé	-10.4527
▁fond	-10.4537
▁rêves	-10.4551
lin	-10.4578
▁Dans	-10.4608
gie	-10.4626
▁gratuite	-10.4629
▁baisse	-10.4644
▁gosses	-10.4645
▁eue	-10.4648
ock	-10.4666
▁Débarrasse	-10.4677
ot	-10.4678
▁Jécri	-10.4724
lant	-10.4731
▁nourriss	-10.4733
▁ja	-10.476
▁soldats	-10.4773
▁arrêtée	-10.4784
▁étranger	-10.4802
▁aisé	-10.481
umeur	-10.4873
ache	-10.4875
▁Nai	-10.4889
▁ga	-10.4903
▁null	-10.4907
▁approche	-10.4916
▁Trouvez	-10.4944
▁be	-10.496
ter	-10.498
▁Éloigne	-10.498
▁mar	-10.5036
▁nentend	-10.5041
▁cour	-10.5066
accord	-10.509
fin	-10.51
▁seras	-10.5121
ement	-10.513
▁amusées	-10.5135
oire	-10.5137
▁Voyez	-10.5156
▁miracle	-10.5156
▁raconte	-10.5161
▁chauve	-10.5167
▁boug	-10.5193
▁Peu	-10.5203
ès	-10.5208
▁cria	-10.5214
▁tarte	-10.5218
irent	-10.5224
▁fasse	-10.5245
▁Ch	-10.5271
▁nécoute	-10.5282
▁flic	-10.5294
▁savon	-10.5295
▁chaussure	-10.5298
▁bout	-10.5329
▁coût	-10.534
▁transpire	-10.5361
ssé	-10.5364
▁mérites	-10.5374
gard	-10.5392
église	-10.54
A	-10.5417
▁mignons	-10.5436
viens	-10.5437
▁conduirai	-10.5445
g	-10.5454
pied	-10.5454
ille	-10.5463
▁bal	-10.5467
▁assuré	-10.5478
▁éloigné	-10.5507
▁affamé	-10.5507
▁risqu	-10.5535
▁obéi	-10.5543
bre	-10.5547
tier	-10.5558
▁repéré	-10.5578
ile	-10.5584
▁dérangé	-10.5586
▁ferm	-10.5608
▁voisin	-10.5608
▁pardonner	-10.5617
▁distrait	-10.5618
▁gêné	-10.562
▁avisé	-10.5638
▁prév	-10.5652
▁pêche	-10.5656
▁poule	-10.5657
▁buvez	-10.5658
▁perdi	-10.5666
▁partage	-10.5672
▁trouvais	-10.5674
▁pag	-10.5682
ïe	-10.5699
▁condition	-10.5701
▁pardon	-10.5705
▁choisir	-10.5705
▁courage	-10.5708
▁Vérifie	-10.5711
▁destin	-10.5714
▁impressionn	-10.5718
légal	-10.5721
▁Peut	-10.5721
▁réel	-10.5721
▁peint	-10.5723
▁Buvez	-10.5723
lication	-10.5724
ourci	-10.5725
ustra	-10.5728
▁soulage	-10.5728
araignée	-10.5728
arranger	-10.5728
▁Asseyonsnous	-10.5728
▁aprèsmidi	-10.5728
▁atroce	-10.5728
▁cinglé	-10.5728
▁didentité	-10.5728
▁défaut	-10.5728
▁emporter	-10.5728
▁frappa	-10.5728
▁furieuse	-10.5728
▁habile	-10.5728
▁humilié	-10.5728
▁intrépide	-10.5728
▁liberté	-10.5728
▁paranoïaque	-10.5728
▁plomb	-10.5728
▁prudence	-10.5728
▁racc	-10.5728
▁ronfle	-10.5728
▁sarrêta	-10.5728
▁strict	-10.5728
▁tapproche	-10.5728
▁vivons	-10.5728
▁Éteins	-10.5728
▁épouvantable	-10.5728
▁adulte	-10.5728
▁applaudi	-10.5728
▁capita	-10.5728
▁Remplis	-10.5728
▁causé	-10.5728
▁excusé	-10.5728
▁lélu	-10.5728
▁étoile	-10.5728
▁nettoyer	-10.5728
▁émotive	-10.5728
▁impitoyable	-10.5728
▁chèque	-10.5728
▁Jaccepte	-10.5728
▁retenu	-10.5728
▁daffaire	-10.5728
▁modeste	-10.5728
▁inévitable	-10.5728
▁batterie	-10.5728
▁élu	-10.5728
▁intrigué	-10.5728
▁papa	-10.5728
▁Lève	-10.5728
▁nord	-10.5728
▁pèse	-10.5728
▁mourut	-10.5728
▁Voyage	-10.5728
▁ailleurs	-10.5728
▁réalité	-10.5728
▁massis	-10.5728
▁robot	-10.5728
▁soudainement	-10.5728
▁Bonjour	-10.5729
▁propriétaire	-10.5729
▁Enfile	-10.5729
▁renard	-10.5729
▁survécu	-10.5729
▁lhistoire	-10.5729
orie	-10.5729
▁contraire	-10.5729
▁refaire	-10.5729
▁cool	-10.5729
▁pénétrer	-10.573
▁dacheter	-10.573
▁sieste	-10.5731
▁touriste	-10.5731
▁troisième	-10.5731
▁terme	-10.5731
ulier	-10.5731
▁roi	-10.5732
▁confirmer	-10.5732
▁signifie	-10.5732
▁Buvezvous	-10.5732
▁détestait	-10.5733
▁sauta	-10.5733
▁survivre	-10.5733
▁décida	-10.5733
onze	-10.5734
▁genoux	-10.5734
▁profondeur	-10.5734
▁déménager	-10.5736
▁beauté	-10.5737
▁certainement	-10.5737
▁sonné	-10.5738
▁réservé	-10.5738
▁recommande	-10.5738
▁alla	-10.5739
amais	-10.5739
▁dérobé	-10.5739
▁Attachez	-10.5739
▁Tournez	-10.5739
▁discuté	-10.574
▁entra	-10.5741
tes	-10.5742
îtres	-10.5744
▁demploi	-10.5744
▁personnel	-10.5744
▁pensestu	-10.5745
▁connaître	-10.5745
▁sortons	-10.5745
▁gravement	-10.5745
▁fumée	-10.5746
▁baissé	-10.5747
▁silence	-10.5747
▁quatre	-10.5748
▁coopérer	-10.5748
▁Av	-10.5749
vola	-10.575
▁consciencieuse	-10.575
▁flatté	-10.5751
▁fidèle	-10.5753
▁souffre	-10.5753
▁fiancée	-10.5753
▁fusil	-10.5757
musetoi	-10.5762
men	-10.5763
▁marier	-10.5764
▁cruelle	-10.5765
▁déjeune	-10.5772
▁méritez	-10.5775
▁Lune	-10.5776
▁préoccupe	-10.5778
▁donnerai	-10.578
▁tembrasser	-10.5782
▁perdant	-10.5785
▁contrat	-10.5787
▁naturel	-10.5791
▁sentez	-10.5791
▁commun	-10.5799
▁foire	-10.5799
▁pardonnerai	-10.58
▁sable	-10.5805
▁cra	-10.5811
▁ravie	-10.5812
▁faisais	-10.5817
▁neigé	-10.5819
▁obten	-10.583
▁demandez	-10.583
▁sagitil	-10.583
▁noublie	-10.5832
▁venons	-10.5833
▁droguée	-10.5835
▁dollars	-10.5838
▁sec	-10.5851
▁début	-10.5858
▁amusés	-10.5862
▁audessus	-10.5867
▁connaissai	-10.5876
▁renvers	-10.5879
▁repérée	-10.588
▁alité	-10.5883
▁bande	-10.5886
ttendais	-10.589
▁impliquée	-10.5904
▁déprimée	-10.591
▁saine	-10.5918
▁médecins	-10.592
▁Montrez	-10.5921
ûtes	-10.5925
▁interven	-10.5926
▁li	-10.5937
▁saoules	-10.5943
aimait	-10.5945
ttraper	-10.5949
▁jouai	-10.5951
▁travaillez	-10.5953
▁méchante	-10.5959
▁jeunes	-10.5965
▁probable	-10.5966
▁coupé	-10.5975
▁champ	-10.5981
▁requis	-10.5984
onnerie	-10.5985
▁Jessaie	-10.6006
tce	-10.6009
▁char	-10.6024
▁situ	-10.6024
ok	-10.6038
▁venus	-10.6061
▁soucier	-10.6065
▁res	-10.6076
▁suivie	-10.6081
▁arrivera	-10.6108
▁visa	-10.614
▁certaine	-10.6161
▁données	-10.6162
nnée	-10.6162
▁énervée	-10.6195
▁prépar	-10.6199
espère	-10.6209
ça	-10.6218
▁vivante	-10.622
ing	-10.6225
unition	-10.6231
▁lavais	-10.6235
pe	-10.6242
▁pou	-10.6252
k	-10.6259
▁bo	-10.627
ri	-10.6289
alité	-10.6305
▁inspir	-10.6319
▁Recule	-10.6325
▁Au	-10.6349
▁chi	-10.6364
▁sou	-10.6364
▁leçon	-10.6373
▁trouverai	-10.6416
▁conte	-10.6441
▁direct	-10.6451
peau	-10.6459
▁mattend	-10.6465
▁basse	-10.6477
▁désire	-10.6481
une	-10.6491
▁erreurs	-10.6494
▁rou	-10.6508
ouons	-10.6516
▁raconter	-10.654
entendre	-10.656
tient	-10.6562
▁ba	-10.6597
▁désir	-10.6598
▁mapprécie	-10.663
▁plat	-10.6643
▁grosses	-10.665
▁dent	-10.6664
per	-10.667
▁cri	-10.6682
▁trouvées	-10.6688
ordre	-10.6692
▁voter	-10.6725
▁Reculez	-10.6732
▁cl	-10.674
▁Jou	-10.6741
▁dés	-10.6759
▁pouff	-10.6785
▁Lun	-10.6786
▁nabandonne	-10.6802
heur	-10.6815
semblez	-10.6817
arant	-10.6822
▁arbres	-10.6823
▁Accorde	-10.6829
▁pension	-10.6844
▁apprend	-10.6863
▁réponses	-10.6879
▁policier	-10.6887
ête	-10.6894
▁Lâchez	-10.6895
cro	-10.6915
▁crie	-10.6933
pes	-10.6936
▁gosse	-10.6942
iz	-10.6947
▁effrontée	-10.6949
▁somme	-10.6957
▁ex	-10.6967
riez	-10.6986
▁bat	-10.7005
▁Ditesle	-10.7014
▁gagn	-10.7031
tou	-10.7036
▁pouss	-10.7038
▁fric	-10.7085
larme	-10.7097
tourner	-10.7103
champ	-10.7104
▁abandonn	-10.7104
▁tra	-10.7106
probable	-10.7111
▁retira	-10.7121
▁amoureuses	-10.7143
▁ignoré	-10.7176
▁déten	-10.7201
▁sidéré	-10.7203
▁mangeons	-10.7205
▁cuisi	-10.7208
pa	-10.721
▁boissons	-10.7228
▁Pars	-10.7236
urgence	-10.7244
▁impuissant	-10.7247
▁piégé	-10.7249
▁pardonné	-10.7255
▁linstitut	-10.7264
▁arrogant	-10.7267
▁préoccupé	-10.7268
▁investi	-10.7274
▁grandir	-10.7281
▁indigné	-10.7282
▁négligent	-10.7282
▁joi	-10.7287
▁désorienté	-10.7297
▁extraverti	-10.7297
▁charmant	-10.7297
habituel	-10.7299
▁parvenu	-10.7311
▁bienvenu	-10.7312
▁Montre	-10.7315
▁cuis	-10.7319
▁band	-10.732
ations	-10.7323
ul	-10.7325
bib	-10.7327
▁inquiét	-10.7328
▁maide	-10.7329
▁nature	-10.7329
▁voyez	-10.7333
▁prier	-10.7342
▁sonne	-10.7343
▁rentre	-10.7344
ien	-10.7346
▁all	-10.735
▁séjour	-10.7351
proprié	-10.7374
▁lég	-10.7379
▁ponctuel	-10.7384
▁criminel	-10.7385
▁fuit	-10.7387
tation	-10.7389
▁généreu	-10.7389
▁espion	-10.7391
ême	-10.7391
▁institut	-10.7393
oivent	-10.7393
▁béné	-10.7394
▁Japprend	-10.7394
▁Achète	-10.7394
océan	-10.7394
▁Américain	-10.7394
▁Demandons	-10.7394
▁Descendez	-10.7394
▁France	-10.7394
▁OVNI	-10.7394
▁Préparetoi	-10.7394
▁bouill	-10.7394
▁camarade	-10.7394
▁chrétien	-10.7394
▁cinéma	-10.7394
▁cuillère	-10.7394
▁domicile	-10.7394
▁décourage	-10.7394
▁dégueulass	-10.7394
▁enthousiaste	-10.7394
▁esseulé	-10.7394
▁fourchette	-10.7394
▁fréquemment	-10.7394
▁férié	-10.7394
▁incorrect	-10.7394
▁invincible	-10.7394
▁jambon	-10.7394
▁jumelle	-10.7394
▁lœil	-10.7394
▁mouvement	-10.7394
▁obstiné	-10.7394
▁phares	-10.7394
▁pharmacie	-10.7394
▁productive	-10.7394
▁samedi	-10.7394
▁tracasse	-10.7394
▁égaré	-10.7394
▁plonge	-10.7394
▁puritain	-10.7394
opéra	-10.7394
▁Pratique	-10.7394
▁demeure	-10.7394
▁inscrit	-10.7394
essaya	-10.7394
▁onéreu	-10.7394
▁populaire	-10.7394
▁calmes	-10.7394
▁hasard	-10.7394
▁malédiction	-10.7394
▁marron	-10.7394
▁productif	-10.7394
▁volontiers	-10.7394
▁Nettoie	-10.7394
▁débat	-10.7394
▁massif	-10.7394
▁gentiment	-10.7395
▁aboie	-10.7395
▁permettrai	-10.7395
▁gorgée	-10.7395
▁programme	-10.7395
▁Rince	-10.7395
▁autorisé	-10.7395
▁miel	-10.7395
▁craintif	-10.7395
▁massage	-10.7395
▁première	-10.7395
▁ancien	-10.7395
▁mévite	-10.7395
▁Servezvous	-10.7395
▁parfois	-10.7395
▁dessert	-10.7395
▁Efforce	-10.7395
▁souffrir	-10.7395
▁couverture	-10.7396
▁coffre	-10.7396
▁craintive	-10.7396
▁vif	-10.7396
▁entraîneur	-10.7396
▁songé	-10.7396
▁portable	-10.7396
▁comprenons	-10.7396
▁mappelle	-10.7396
▁matinée	-10.7396
▁décroché	-10.7396
▁mode	-10.7397
▁journaliste	-10.7397
▁canadienne	-10.7397
▁distance	-10.7398
▁étendu	-10.7398
▁tamuse	-10.7398
▁tinquiète	-10.7398
▁sauté	-10.7399
▁ingénieuse	-10.7399
▁Devine	-10.7399
▁brûlant	-10.74
▁généreuse	-10.74
▁remplacer	-10.74
▁confessé	-10.74
▁destinée	-10.74
▁jumeaux	-10.7401
▁voies	-10.7401
▁vague	-10.7401
▁diable	-10.7401
▁lidée	-10.7401
▁Vide	-10.7402
▁Boistu	-10.7402
▁saouls	-10.7403
▁terminer	-10.7404
▁malheureuse	-10.7407
▁valeur	-10.7407
▁ponctuelle	-10.7407
▁poursuivi	-10.7407
stique	-10.7408
▁corrigé	-10.7409
▁distribu	-10.741
▁poil	-10.741
▁peindre	-10.741
▁cerf	-10.7413
▁juge	-10.7413
▁voyant	-10.7414
▁frime	-10.7414
umes	-10.7415
▁connaissezvous	-10.7416
▁Mars	-10.7418
▁allergie	-10.7419
▁retirer	-10.742
▁comple	-10.7421
▁servir	-10.7421
▁chiant	-10.7422
▁rejoindre	-10.7422
▁lavion	-10.7422
▁approchez	-10.7423
▁exclu	-10.7425
▁émotif	-10.7425
▁sérieusement	-10.7427
▁sacrée	-10.7427
▁moqué	-10.7428
▁paraiss	-10.743
Amérique	-10.7431
▁apprécient	-10.7433
▁enlevé	-10.7433
if	-10.7433
▁Venezvous	-10.7441
▁arrivent	-10.7445
▁minu	-10.7446
▁mourrais	-10.7446
▁serr	-10.7447
▁sortis	-10.7449
▁offensé	-10.7453
▁Ba	-10.7456
▁admett	-10.7458
dienne	-10.746
▁passerai	-10.7465
space	-10.7466
▁coincée	-10.7467
▁taiderai	-10.7474
▁imbécile	-10.7477
▁éteinte	-10.7478
▁panique	-10.7478
do	-10.7481
▁illégal	-10.7482
▁esprit	-10.7486
▁vision	-10.7487
▁enseigner	-10.7488
▁lart	-10.7494
contracté	-10.75
▁surveiller	-10.7515
▁embarrassée	-10.7516
▁aperçu	-10.7522
▁préoccupée	-10.7524
▁lèvres	-10.7526
oyons	-10.753
▁élève	-10.753
▁innocente	-10.7531
▁doisje	-10.7534
▁changea	-10.7542
▁avisée	-10.7551
▁rase	-10.7557
part	-10.7558
aurais	-10.7559
▁affreuse	-10.756
▁habituée	-10.7563
▁bruyante	-10.7572
▁veinarde	-10.7572
▁parlent	-10.7594
▁plaîtil	-10.7604
nvie	-10.7607
▁portée	-10.7612
▁repose	-10.7612
▁Écoutez	-10.7612
▁fantômes	-10.7613
▁claire	-10.7616
▁dégoûtante	-10.762
▁maline	-10.7639
▁horloge	-10.7641
▁conduise	-10.7645
▁mangez	-10.7649
▁reconnue	-10.7655
▁nouveaux	-10.7656
▁concentre	-10.7656
▁détestent	-10.7666
▁intéressée	-10.7667
▁Désolée	-10.7675
cteur	-10.7675
▁levée	-10.7682
▁canne	-10.7691
▁engagée	-10.7692
▁abeilles	-10.7701
▁jouets	-10.7707
chargée	-10.7708
aine	-10.7713
▁fout	-10.772
▁croira	-10.7724
▁Partez	-10.7726
▁lapprécier	-10.7728
▁lente	-10.7729
▁bourrée	-10.773
▁bl	-10.7731
▁pi	-10.7745
▁armée	-10.7753
▁importe	-10.777
▁oublier	-10.7773
▁triche	-10.7776
▁Pardonne	-10.7783
▁Leur	-10.7784
▁déranger	-10.7794
▁pensezvous	-10.7804
▁virée	-10.7814
▁prêter	-10.7819
▁pétri	-10.782
▁préparée	-10.7822
▁lourde	-10.7841
▁rentra	-10.7845
position	-10.7849
▁habitude	-10.7868
▁séparée	-10.7879
▁pensent	-10.7879
▁gentils	-10.7882
▁telle	-10.7899
épousa	-10.7907
▁trouvera	-10.7914
ures	-10.7916
telles	-10.7917
▁batt	-10.7924
cas	-10.7929
▁jeux	-10.7956
▁ennemie	-10.796
▁taire	-10.7962
▁déshabille	-10.798
alcool	-10.7984
▁importante	-10.7985
leur	-10.8002
▁venues	-10.8006
▁vire	-10.803
sie	-10.8031
▁irons	-10.8046
▁roses	-10.8061
▁Do	-10.8065
▁ch	-10.8076
▁drague	-10.8091
▁brise	-10.8116
▁Croyez	-10.813
ié	-10.8136
▁bavard	-10.8144
étique	-10.8185
▁roule	-10.8195
ck	-10.8199
tière	-10.8211
lle	-10.8232
ouille	-10.8245
▁couleurs	-10.8245
▁paye	-10.8264
▁Réveille	-10.8297
▁balai	-10.8324
ose	-10.8383
écris	-10.8402
cu	-10.8409
▁tente	-10.8415
▁suicid	-10.8417
sible	-10.8442
▁march	-10.8447
envoya	-10.8449
▁parven	-10.8451
alluma	-10.8454
▁Don	-10.8458
▁Utilisez	-10.8475
ler	-10.8486
▁ni	-10.8544
▁to	-10.8576
▁éta	-10.8577
▁Attend	-10.859
▁parier	-10.8604
▁espér	-10.8637
an	-10.8654
nes	-10.8654
▁jure	-10.8666
▁fan	-10.8669
▁nie	-10.8677
▁lemporte	-10.8686
▁soie	-10.869
▁parlai	-10.8693
ois	-10.8695
écouter	-10.8702
▁traître	-10.8703
▁tache	-10.8715
vient	-10.8734
▁pan	-10.8739
▁capt	-10.8752
rdé	-10.8753
vrez	-10.8763
nseigner	-10.88
▁curi	-10.8804
erie	-10.8813
étend	-10.8834
▁Es	-10.8858
ra	-10.8861
▁Pensez	-10.8869
▁can	-10.8872
▁colle	-10.8875
▁rougi	-10.8892
▁taquine	-10.8892
teau	-10.8893
th	-10.8897
▁parfaites	-10.8921
▁descend	-10.8946
▁banane	-10.895
▁questions	-10.8955
▁fruit	-10.8957
▁œuf	-10.8958
ssaie	-10.8965
▁temp	-10.8968
▁personnes	-10.8979
▁revenue	-10.899
▁sau	-10.8995
aimons	-10.8998
utilise	-10.8998
▁davi	-10.9002
▁moral	-10.9002
ang	-10.9013
▁parlais	-10.9017
dé	-10.9019
approuve	-10.9024
Italie	-10.9026
▁revi	-10.9043
lève	-10.9084
▁fri	-10.9092
avons	-10.9094
horloge	-10.9101
poids	-10.9121
P	-10.9124
voir	-10.9124
cien	-10.9131
▁envoyée	-10.9134
▁iron	-10.9141
S	-10.9147
▁terrifié	-10.9154
▁port	-10.9154
▁Serre	-10.9167
V	-10.917
rée	-10.9177
▁soulagé	-10.9179
▁calmé	-10.9182
▁étudi	-10.9182
sœur	-10.9186
▁tir	-10.9197
▁suppos	-10.9197
▁tappelles	-10.9206
▁jugé	-10.9216
▁survivant	-10.9216
▁oublie	-10.9224
▁Quan	-10.9226
▁ressent	-10.9229
huit	-10.9231
▁affreu	-10.9232
▁hurl	-10.9238
▁endurant	-10.9247
▁sournois	-10.9247
▁tappelle	-10.9253
▁sélectionné	-10.9254
▁obligé	-10.9254
▁goûte	-10.9257
▁sorties	-10.9266
▁tourna	-10.9272
▁barré	-10.9282
▁dégoûté	-10.9284
▁branché	-10.929
▁Apprécie	-10.9304
▁coincé	-10.9307
▁saura	-10.932
▁films	-10.9321
▁averti	-10.9323
▁dira	-10.9331
▁guéri	-10.9335
▁trempé	-10.9343
▁plac	-10.9344
dore	-10.9353
▁emb	-10.9361
▁consciencieu	-10.9362
▁séjourn	-10.9366
▁embarrass	-10.9374
ignet	-10.9376
▁Profite	-10.9376
▁Attache	-10.9378
▁Tourne	-10.9378
▁nia	-10.9379
▁Avance	-10.9379
ative	-10.938
interromp	-10.9383
occasion	-10.9384
▁genou	-10.9385
▁sagissait	-10.9387
▁Remets	-10.9388
nue	-10.9389
▁contagieu	-10.939
éjugé	-10.9391
▁végétarien	-10.9391
hacun	-10.9392
lingue	-10.9393
olog	-10.9393
▁détrui	-10.9394
ourdi	-10.9394
▁foot	-10.9394
▁électron	-10.9394
▁Envoie	-10.9394
intéresse	-10.9394
▁Bienvenue	-10.9394
▁Détendstoi	-10.9394
▁Jessayai	-10.9394
▁Joignezvous	-10.9394
▁Nabandonne	-10.9394
▁Réfléchis	-10.9394
▁agaçant	-10.9394
▁américain	-10.9394
▁bagnole	-10.9394
▁beurre	-10.9394
▁catholique	-10.9394
▁chandelle	-10.9394
▁coffrefort	-10.9394
▁conducteur	-10.9394
▁courriel	-10.9394
▁dagir	-10.9394
▁dexcuse	-10.9394
▁discret	-10.9394
▁discrète	-10.9394
▁décev	-10.9394
▁dœil	-10.9394
▁effectivement	-10.9394
▁ensoleillé	-10.9394
▁erroné	-10.9394
▁impartial	-10.9394
▁inclus	-10.9394
▁incorrigible	-10.9394
▁lécart	-10.9394
▁lépoque	-10.9394
▁maladie	-10.9394
▁mannequin	-10.9394
▁modèle	-10.9394
▁musicien	-10.9394
▁négative	-10.9394
▁partagé	-10.9394
▁pathétique	-10.9394
▁piquenique	-10.9394
▁pistolet	-10.9394
▁pyjama	-10.9394
▁recevoir	-10.9394
▁sapproch	-10.9394
▁steak	-10.9394
▁truite	-10.9394
▁virgule	-10.9394
▁voyagé	-10.9394
▁équitable	-10.9394
▁œuvre	-10.9394
quérir	-10.9394
▁Canadien	-10.9394
▁côte	-10.9394
▁intime	-10.9394
▁lampe	-10.9394
▁larticle	-10.9394
▁soixante	-10.9394
▁tremble	-10.9394
▁article	-10.9394
▁compassion	-10.9394
▁gliss	-10.9394
▁mystère	-10.9394
▁Nourris	-10.9394
▁écrivain	-10.9394
ordinaire	-10.9394
▁venge	-10.9394
▁défense	-10.9394
▁opportuniste	-10.9394
▁absent	-10.9394
▁baiser	-10.9395
▁contribu	-10.9395
▁vilain	-10.9395
▁enterré	-10.9395
▁voyiez	-10.9395
▁remettra	-10.9395
▁collecti	-10.9395
▁comporte	-10.9395
▁déroule	-10.9395
▁heurté	-10.9395
▁abattu	-10.9395
▁joindrai	-10.9395
inclina	-10.9395
▁dossier	-10.9395
▁géré	-10.9395
▁franchi	-10.9395
▁honoré	-10.9395
▁usage	-10.9395
▁citron	-10.9395
▁minquiète	-10.9395
verrons	-10.9395
yoto	-10.9395
▁détonation	-10.9395
▁protège	-10.9395
▁grouille	-10.9395
▁russe	-10.9395
▁serrure	-10.9395
▁grandchose	-10.9395
▁nausée	-10.9395
▁émis	-10.9395
▁dame	-10.9395
▁quart	-10.9395
ambul	-10.9395
▁promen	-10.9395
▁connait	-10.9395
▁jupe	-10.9396
▁alliez	-10.9396
▁manquant	-10.9396
▁régler	-10.9396
▁critique	-10.9396
rist	-10.9396
▁rembourser	-10.9396
▁chiot	-10.9396
▁diriezvous	-10.9396
▁membête	-10.9396
▁survivron	-10.9396
▁tenace	-10.9397
▁réglé	-10.9397
▁descendit	-10.9397
▁déplacement	-10.9397
▁dair	-10.9397
▁glouss	-10.9397
▁sinistre	-10.9397
▁comprenezvous	-10.9398
▁terrifiant	-10.9398
▁méjugé	-10.9398
▁pop	-10.9398
▁réellement	-10.9398
▁suivez	-10.9398
▁serveur	-10.9398
▁parlèrent	-10.9399
âtre	-10.9399
▁Emmène	-10.94
▁tâche	-10.94
▁affect	-10.94
▁fixer	-10.94
▁suivrai	-10.94
▁répéter	-10.9401
▁écrasé	-10.9401
▁indiqu	-10.9402
▁laimais	-10.9402
▁compagnon	-10.9402
▁directement	-10.9403
▁Quavonsnous	-10.9404
▁salu	-10.9404
▁Excusezmoi	-10.9405
▁doux	-10.9405
▁conven	-10.9405
▁maga	-10.9405
▁dépassé	-10.9406
▁clairement	-10.9406
▁désespéré	-10.9407
▁caisse	-10.9407
euil	-10.9407
▁réveilla	-10.9408
▁laimait	-10.9409
▁aba	-10.9409
▁tasseoir	-10.941
▁danseuse	-10.9411
▁bouchée	-10.9411
▁rug	-10.9412
▁repris	-10.9413
▁sincèrement	-10.9413
▁vomi	-10.9414
▁commerc	-10.9414
▁Nettoyez	-10.9414
▁secoué	-10.9414
▁Japonais	-10.9415
▁arrivés	-10.9415
▁Vers	-10.9416
▁moteur	-10.9416
▁tenterai	-10.9417
▁Laissons	-10.9417
aleine	-10.9418
▁pété	-10.9418
▁Vérifiez	-10.9419
▁contient	-10.9419
▁quant	-10.942
▁perdons	-10.9421
▁urgen	-10.9422
▁assister	-10.9424
▁mappeler	-10.9424
▁imm	-10.9425
▁diplômé	-10.9428
▁imagin	-10.9428
▁arnaque	-10.9429
▁venez	-10.9429
▁ladresse	-10.943
▁jean	-10.943
ballon	-10.943
▁infirmière	-10.9432
▁prévisible	-10.9432
▁Cha	-10.9432
▁Gardele	-10.9434
▁voudraistu	-10.9434
▁désigné	-10.9434
dezvous	-10.9435
▁obéir	-10.9437
▁coups	-10.9442
▁bondé	-10.9444
▁gentilles	-10.9447
▁jus	-10.9448
▁tri	-10.9449
▁passage	-10.9449
▁attirante	-10.945
ottes	-10.9454
▁fortement	-10.9455
▁moutons	-10.9455
▁bottes	-10.9455
▁rasé	-10.9459
▁prêterai	-10.9462
▁personnelle	-10.9463
▁jeta	-10.9468
▁loque	-10.9468
▁pont	-10.9468
▁fonctionnera	-10.947
▁agité	-10.9472
annuler	-10.9478
▁dessinée	-10.9482
▁aidée	-10.9484
▁plantes	-10.9485
▁ras	-10.9489
▁achète	-10.949
▁ingénieu	-10.9492
▁soûl	-10.9497
▁sensation	-10.9497
▁foncé	-10.9497
▁visible	-10.9498
▁montrerai	-10.9503
▁Arrêtetoi	-10.9504
▁qua	-10.9506
▁lencre	-10.9507
▁dh	-10.9507
▁semaines	-10.9513
▁charmante	-10.9514
▁désorientée	-10.9514
▁extravertie	-10.9514
▁lignorai	-10.9516
▁foule	-10.952
▁ser	-10.9526
▁frapper	-10.9527
▁rentrée	-10.9532
▁comprendstu	-10.9537
▁tentends	-10.9538
dent	-10.954
▁Allezy	-10.9542
▁endurante	-10.9544
▁sournoise	-10.9544
aientils	-10.9553
▁motivée	-10.9558
▁prendra	-10.9559
▁soutiens	-10.9559
▁accordé	-10.9562
▁refusai	-10.9565
▁partez	-10.957
rrêtonsnous	-10.9573
▁cochons	-10.9576
▁couche	-10.9576
▁four	-10.9577
▁impuissante	-10.9578
▁piégée	-10.9578
▁parviendron	-10.9584
▁tenai	-10.9592
cible	-10.9596
▁apparentée	-10.9598
▁allongée	-10.9602
▁changera	-10.961
▁mamuse	-10.9621
garderai	-10.9622
▁travaillerons	-10.9623
▁objection	-10.9633
igé	-10.9634
prirent	-10.9638
▁allait	-10.9639
▁puissante	-10.9646
▁commençons	-10.9652
▁coch	-10.9658
▁Serrez	-10.966
▁diraistu	-10.9668
▁fermés	-10.9668
êtes	-10.9674
▁aiderai	-10.9686
▁donnée	-10.9695
bliez	-10.9699
▁loublier	-10.9744
▁maths	-10.9748
▁déçue	-10.9748
ricot	-10.9755
ranchement	-10.9756
▁combat	-10.9758
▁manifeste	-10.9769
▁jaunes	-10.9777
▁G	-10.9788
fre	-10.981
▁vase	-10.9824
▁saistu	-10.9826
action	-10.9827
▁chargé	-10.9839
ry	-10.9844
▁étaitce	-10.9846
▁tappellerai	-10.985
lons	-10.9853
▁Croi	-10.9855
▁puis	-10.9857
▁plaie	-10.9864
avertir	-10.9878
▁or	-10.9882
▁di	-10.9896
▁assurance	-10.9912
nter	-10.9916
▁Finis	-10.9918
▁idées	-10.9921
inet	-10.9924
▁marchera	-10.993
ngage	-10.9932
▁exa	-10.9934
▁produir	-10.9936
prenons	-10.9941
▁fl	-10.9944
▁transpir	-10.9948
▁protest	-10.995
raistu	-10.9957
▁savezvous	-10.996
yons	-10.9965
issons	-10.9985
▁ti	-10.9989
▁membrass	-10.999
▁Mil	-10.9997
▁attrapée	-10.9998
▁Sauve	-11.0014
▁Marche	-11.0025
larmée	-11.0026
était	-11.0044
▁rat	-11.0055
▁att	-11.0064
ca	-11.007
érez	-11.0088
▁poursuivr	-11.0113
▁auto	-11.0132
▁ho	-11.0158
▁démo	-11.0212
▁fiers	-11.0256
étit	-11.0257
irezvous	-11.0281
iment	-11.0287
▁payée	-11.0287
▁trag	-11.0315
▁râle	-11.0327
▁rejoindr	-11.0332
▁doyen	-11.0335
▁Ave	-11.0338
▁Vise	-11.0375
▁Utilise	-11.039
▁jette	-11.0406
▁rigol	-11.0466
▁paroles	-11.0469
▁surf	-11.048
▁déprim	-11.0487
rbe	-11.0513
ssayerai	-11.0516
ouvrez	-11.0533
▁spéci	-11.0533
▁méti	-11.0534
ap	-11.0543
empêcher	-11.0559
▁lemploi	-11.0566
cheter	-11.0575
di	-11.0575
mploie	-11.059
▁action	-11.0595
▁approch	-11.06
▁lappelle	-11.061
▁Réveillez	-11.062
▁appellerai	-11.0673
tin	-11.0723
hui	-11.0747
▁croi	-11.0775
ense	-11.0785
ut	-11.0789
▁voul	-11.0794
▁assises	-11.0803
▁min	-11.0826
▁meurt	-11.0829
édie	-11.0878
ouffer	-11.088
sement	-11.0892
▁tape	-11.0899
▁cache	-11.09
▁séchappe	-11.0904
▁Viv	-11.0905
omp	-11.0924
père	-11.0926
▁directe	-11.0933
▁travailles	-11.0935
apporterai	-11.0936
▁suffi	-11.0944
ables	-11.096
pousser	-11.0978
▁rel	-11.0985
▁vir	-11.1019
▁cesse	-11.1049
trait	-11.1052
▁révél	-11.1055
ude	-11.1056
ate	-11.108
▁travaill	-11.1085
idée	-11.1085
▁navi	-11.1089
redi	-11.1105
▁ap	-11.1143
ncre	-11.1167
accompagner	-11.1181
▁pauvres	-11.1194
▁balles	-11.1196
ssèrent	-11.1196
▁dette	-11.1198
▁Saisis	-11.1199
▁aima	-11.1203
pelle	-11.122
▁essaye	-11.1226
▁répare	-11.1231
▁céd	-11.1239
▁av	-11.1249
rrêter	-11.1251
▁bou	-11.1283
▁pur	-11.1288
▁patine	-11.1295
▁Retirez	-11.1303
▁Fiche	-11.1313
▁larrêt	-11.1318
▁changements	-11.132
▁tomb	-11.1321
▁tigre	-11.1329
▁Crois	-11.1364
▁gri	-11.1383
rouille	-11.1398
isson	-11.1422
▁jaune	-11.1424
▁requi	-11.1431
▁abeille	-11.1432
▁plantée	-11.1434
▁réjoui	-11.1444
ppeler	-11.1444
▁vache	-11.1446
▁combattr	-11.1447
▁Metsl	-11.147
évoque	-11.1484
▁Portez	-11.149
embrassa	-11.1495
▁lapin	-11.1528
uf	-11.1533
▁saviez	-11.1537
▁surprend	-11.1543
▁ouvre	-11.1548
puis	-11.1548
uyer	-11.155
▁public	-11.1564
▁tomba	-11.1571
▁lisez	-11.1579
nseigne	-11.1586
tant	-11.1586
essayer	-11.1596
▁stylos	-11.1598
raté	-11.1605
objection	-11.1607
hôpita	-11.1609
allait	-11.1612
préhen	-11.1612
retenir	-11.1616
cinq	-11.1617
▁harcele	-11.1617
attendu	-11.1621
honnête	-11.1622
idiot	-11.1626
allons	-11.1628
▁len	-11.1633
▁appar	-11.1635
▁apparenté	-11.1639
▁entretenu	-11.1646
▁pourriez	-11.1647
heure	-11.1668
▁Aim	-11.1684
▁débrouillé	-11.1685
▁têtu	-11.1687
▁rev	-11.1689
▁accepter	-11.169
▁frustré	-11.1691
▁plain	-11.1708
oti	-11.1712
▁aîné	-11.1715
▁fusillé	-11.1718
▁infecté	-11.1725
▁sonner	-11.1746
▁class	-11.1754
▁fainéant	-11.1754
▁fascinant	-11.1754
▁imprudent	-11.1754
▁cerné	-11.1754
▁amical	-11.1755
▁incompétent	-11.1755
▁coiff	-11.1757
▁remué	-11.1757
▁courtois	-11.1759
▁ref	-11.176
▁patien	-11.1761
ouvri	-11.1763
▁réussira	-11.1763
▁éteint	-11.1767
ignorait	-11.1775
▁anéanti	-11.1782
▁maladroit	-11.1782
▁véhiculé	-11.1782
▁ordonné	-11.1782
▁surmené	-11.1785
▁enlacé	-11.1785
instituteur	-11.1796
▁Jador	-11.18
viezvous	-11.1808
enverrai	-11.1811
▁dérob	-11.1812
fiezvous	-11.1816
▁attaque	-11.1817
▁arrivons	-11.1818
ffe	-11.182
▁humi	-11.1821
▁entend	-11.1823
▁brillant	-11.1825
▁cacha	-11.1828
service	-11.1832
▁surpren	-11.1834
opin	-11.184
▁cuir	-11.1844
▁souffr	-11.1846
▁sacré	-11.185
▁énorm	-11.185
▁Jappréci	-11.185
▁fiancé	-11.185
tiens	-11.1851
alysé	-11.1852
dre	-11.1855
▁rejoin	-11.1857
pérons	-11.1859
▁rep	-11.186
▁Travaille	-11.1861
ombe	-11.1861
ène	-11.1865
semblant	-11.1868
▁réveil	-11.1871
▁essai	-11.1872
▁sér	-11.1872
▁Répondez	-11.1873
erre	-11.1874
▁drogu	-11.1874
rague	-11.1876
▁démission	-11.188
▁crev	-11.1881
▁grimpe	-11.1882
importance	-11.1882
▁sarrête	-11.1883
emand	-11.1883
▁jumeau	-11.1885
▁Pose	-11.1885
▁réveille	-11.1885
▁diab	-11.1889
laîtil	-11.189
▁embrasse	-11.189
▁accro	-11.1891
▁canadien	-11.1891
mmi	-11.1891
▁piè	-11.1892
ndroit	-11.1892
▁ord	-11.1892
▁Grand	-11.1893
matique	-11.1893
eaucoup	-11.1894
▁large	-11.1894
▁abso	-11.1894
splendi	-11.1894
▁Accroche	-11.1894
▁dévêt	-11.1894
▁épluch	-11.1894
abillezvous	-11.1894
bouchon	-11.1894
mployez	-11.1894
soufflé	-11.1894
▁Abaisse	-11.1894
▁Continuons	-11.1894
▁Discutons	-11.1894
▁Détendezvous	-11.1894
▁Emmenez	-11.1894
▁Essuie	-11.1894
▁Préparezvous	-11.1894
▁Reposonsnous	-11.1894
▁Retournons	-11.1894
▁Trace	-11.1894
▁accompli	-11.1894
▁arnaqué	-11.1894
▁assoupi	-11.1894
▁bég	-11.1894
▁cauchemar	-11.1894
▁chavir	-11.1894
▁cloué	-11.1894
▁domestique	-11.1894
▁dégourdi	-11.1894
▁désorganisé	-11.1894
▁encombr	-11.1894
▁enseigné	-11.1894
▁envolé	-11.1894
▁européen	-11.1894
▁expliqué	-11.1894
▁expulsé	-11.1894
▁fabuleu	-11.1894
▁fourbu	-11.1894
▁fromage	-11.1894
▁frott	-11.1894
▁gaspillage	-11.1894
▁giflé	-11.1894
▁inconscient	-11.1894
▁ingénu	-11.1894
▁inoubliable	-11.1894
▁intact	-11.1894
▁irresponsable	-11.1894
▁ivrogne	-11.1894
▁lapprécia	-11.1894
▁lévidence	-11.1894
▁mennuyais	-11.1894
▁menotté	-11.1894
▁ménage	-11.1894
▁nettoyé	-11.1894
▁observateur	-11.1894
▁observatrice	-11.1894
▁pull	-11.1894
▁raccroche	-11.1894
▁rafraîchi	-11.1894
▁respectueuse	-11.1894
▁respectueux	-11.1894
▁reçoi	-11.1894
▁saméliore	-11.1894
▁sassombri	-11.1894
▁serpents	-11.1894
▁similaire	-11.1894
▁submergé	-11.1894
▁timbre	-11.1894
▁victime	-11.1894
▁victoire	-11.1894
▁victorieu	-11.1894
▁Écartetoi	-11.1894
▁Écartezvous	-11.1894
▁Écoutons	-11.1894
▁Éteignez	-11.1894
▁événement	-11.1894
▁Envoyez	-11.1894
▁Offre	-11.1894
▁Pleutil	-11.1894
▁crâne	-11.1894
▁dactylo	-11.1894
▁désastre	-11.1894
▁maniaque	-11.1894
▁mijote	-11.1894
▁professionnel	-11.1894
▁Maîtrise	-11.1894
▁bisou	-11.1894
▁fabriqu	-11.1894
▁grassouillet	-11.1894
▁isolé	-11.1894
▁remarié	-11.1894
▁Comporte	-11.1894
▁procuré	-11.1894
▁Poursuis	-11.1894
▁lappareil	-11.1894
▁hypocrite	-11.1894
▁perroquet	-11.1894
▁soulev	-11.1895
▁géniaux	-11.1895
▁morceau	-11.1895
▁sushi	-11.1895
▁actif	-11.1895
pertinent	-11.1895
▁Rome	-11.1895
▁blog	-11.1895
▁métal	-11.1895
▁tradition	-11.1895
▁darme	-11.1895
▁sécurisé	-11.1895
omène	-11.1895
▁otage	-11.1895
▁Certain	-11.1895
▁recycl	-11.1895
▁totalité	-11.1895
▁paumé	-11.1895
▁Partage	-11.1895
▁client	-11.1895
▁tapis	-11.1895
▁organisé	-11.1895
▁Change	-11.1895
▁fanatique	-11.1895
▁parfaits	-11.1895
▁toucha	-11.1895
▁dissuad	-11.1895
▁décl	-11.1895
▁étourdi	-11.1895
▁manquèrent	-11.1895
▁temporise	-11.1895
▁essayons	-11.1895
▁fermeture	-11.1895
▁Enchanté	-11.1895
▁tortues	-11.1895
oignée	-11.1895
▁montagne	-11.1895
▁enfui	-11.1895
▁dégot	-11.1895
▁minutieu	-11.1895
▁condamné	-11.1895
▁pendule	-11.1895
▁phrase	-11.1895
▁hideu	-11.1895
térie	-11.1896
▁chèvre	-11.1896
▁brun	-11.1896
▁puits	-11.1896
▁biologi	-11.1896
▁tatillon	-11.1896
▁coûteratil	-11.1896
▁poisse	-11.1896
▁Quécri	-11.1896
▁lunatique	-11.1896
▁amèrement	-11.1896
▁débarrasserai	-11.1896
▁planche	-11.1896
▁lascenseur	-11.1896
▁retourné	-11.1896
▁siffler	-11.1896
▁Scelle	-11.1896
▁rigolo	-11.1896
▁stopper	-11.1896
▁nuageux	-11.1896
▁chameau	-11.1896
▁stupéfait	-11.1896
▁audacieuse	-11.1896
▁Finissons	-11.1896
▁option	-11.1897
▁Lavetoi	-11.1897
▁excellent	-11.1897
plié	-11.1897
▁imitation	-11.1897
▁félicit	-11.1897
▁enquis	-11.1897
▁mesuré	-11.1897
▁sennuy	-11.1897
▁flingue	-11.1897
▁Touche	-11.1897
▁dhistoire	-11.1898
▁libère	-11.1898
▁tatillonne	-11.1898
▁Nattend	-11.1898
▁effet	-11.1898
▁affairé	-11.1898
▁explosé	-11.1898
▁chacun	-11.1898
▁réservation	-11.1898
▁mesquin	-11.1898
▁poche	-11.1898
▁pouvions	-11.1899
▁image	-11.1899
▁Finissonsen	-11.1899
▁lestomac	-11.1899
▁lodeur	-11.1899
▁pourvu	-11.1899
▁amusons	-11.1899
▁gren	-11.1899
▁referai	-11.19
fère	-11.19
torse	-11.19
▁ressemblait	-11.19
▁contagieuse	-11.19
▁espionne	-11.1901
▁Achetez	-11.1901
▁Mettons	-11.1901
▁Réveilletoi	-11.1902
▁Étudiezvous	-11.1902
▁voleuse	-11.1902
▁lapprécions	-11.1902
▁recommencer	-11.1902
▁marque	-11.1902
▁chausse	-11.1902
▁Travaillezvous	-11.1902
▁quarante	-11.1902
▁fatal	-11.1903
agèrent	-11.1903
▁augmenté	-11.1903
▁cadr	-11.1903
▁Aidons	-11.1904
▁perdrai	-11.1904
▁Battez	-11.1904
▁peigne	-11.1904
▁gent	-11.1904
▁sappelle	-11.1904
▁fiez	-11.1905
▁inventé	-11.1906
▁attendit	-11.1906
▁audess	-11.1906
▁démasqu	-11.1906
zar	-11.1906
▁éprouv	-11.1906
▁Nagis	-11.1906
▁Jobéi	-11.1907
▁lobs	-11.1907
▁ennuyeuse	-11.1907
▁fixé	-11.1907
▁pâli	-11.1907
▁grasse	-11.1907
▁réparé	-11.1908
▁loccasion	-11.1908
▁surpassé	-11.1908
▁croy	-11.1908
▁pensionné	-11.1908
▁réalisé	-11.1908
étaitce	-11.1908
▁Étudiestu	-11.1909
cade	-11.191
▁grimper	-11.1911
▁Compte	-11.1911
▁Ignorez	-11.1912
▁démarré	-11.1912
orph	-11.1912
▁Montrele	-11.1912
▁avide	-11.1912
▁criminelle	-11.1912
▁singe	-11.1912
▁Jappelle	-11.1912
leman	-11.1913
▁monsieur	-11.1914
▁Donneles	-11.1914
▁feuille	-11.1915
▁gâté	-11.1915
▁dheure	-11.1915
▁dépêché	-11.1915
▁passager	-11.1915
▁Avancez	-11.1917
▁volont	-11.1918
▁chargerai	-11.1918
▁concert	-11.1918
▁crédit	-11.1918
▁découter	-11.1922
▁occuperai	-11.1923
▁tube	-11.1923
▁sal	-11.1924
▁décide	-11.1925
▁jaime	-11.1926
▁fontils	-11.1926
▁cure	-11.1927
onie	-11.1927
▁dexcellent	-11.1927
▁blé	-11.1928
▁commander	-11.193
▁crise	-11.193
▁trousse	-11.1931
▁nié	-11.1931
▁réserv	-11.1934
▁lemb	-11.1935
▁partic	-11.1936
▁trouva	-11.1936
utrefois	-11.1937
▁tint	-11.1937
▁poliment	-11.1938
▁compli	-11.1938
▁méritent	-11.1938
▁arabe	-11.194
▁acide	-11.1942
▁nerveusement	-11.1942
▁alibi	-11.1944
▁identifier	-11.1944
▁ennuie	-11.1944
▁Allonsnous	-11.1945
▁lhomme	-11.1945
▁loyal	-11.1946
▁mineure	-11.1947
▁épin	-11.1948
▁fonctionnetil	-11.1949
▁rappelé	-11.1951
▁trouveront	-11.1953
▁Commencez	-11.1954
▁approché	-11.1955
▁soupçonn	-11.1956
▁Essaiele	-11.1961
ari	-11.1961
▁boule	-11.1962
▁balance	-11.1963
▁mâch	-11.1965
abandonnèrent	-11.1966
▁progr	-11.1967
▁fières	-11.1967
▁manquai	-11.1967
▁lien	-11.1968
▁hérit	-11.1969
nça	-11.1971
▁discut	-11.1971
▁naurai	-11.1971
▁courait	-11.1972
▁reviennes	-11.1974
▁Vois	-11.1975
▁blonde	-11.1976
▁hardie	-11.1976
▁resplendissante	-11.1976
▁construis	-11.1976
▁digne	-11.1976
▁explosion	-11.1977
▁ha	-11.1979
nverrai	-11.1979
▁dhomme	-11.199
▁attendra	-11.1993
▁cuire	-11.1995
▁admis	-11.1997
▁rendra	-11.1999
amené	-11.2005
▁futon	-11.2006
▁Sentez	-11.2007
▁ordonnée	-11.2008
▁véhiculée	-11.2008
▁anéantie	-11.2008
▁maladroite	-11.2008
▁surmenée	-11.2008
▁essaie	-11.2012
▁demanderai	-11.2015
▁chantez	-11.2015
eb	-11.2017
▁regretter	-11.2019
▁givrée	-11.2024
▁craque	-11.2026
▁signé	-11.2026
▁bara	-11.2027
▁ignorer	-11.2027
▁Regardele	-11.2027
géni	-11.2028
▁ennuyé	-11.2032
▁For	-11.2035
inquiéter	-11.2035
▁enlacée	-11.2036
▁moccuper	-11.2038
▁dégoûtée	-11.2041
▁seratil	-11.2041
▁barrée	-11.2041
▁connaistu	-11.2046
▁sensible	-11.205
▁cir	-11.2057
▁rendez	-11.2059
▁vientil	-11.2061
▁ange	-11.2063
▁gobe	-11.2064
nique	-11.2072
▁Sonne	-11.2072
▁dissu	-11.2073
▁indignée	-11.2073
▁négligente	-11.2073
▁patiente	-11.2074
▁fusillée	-11.2076
▁mim	-11.2077
▁infectée	-11.2077
formuler	-11.2079
▁parvenue	-11.2081
ns	-11.2082
▁nomme	-11.2083
▁filé	-11.2084
onné	-11.2084
▁Laissenous	-11.2087
ellement	-11.2094
▁hy	-11.2103
▁quelquesuns	-11.2103
▁alitée	-11.2105
▁distraite	-11.2106
▁gênée	-11.2107
▁ongles	-11.2112
▁courte	-11.2112
▁manquera	-11.2113
▁éclair	-11.2118
▁voistu	-11.2118
▁Souri	-11.2122
▁trouvai	-11.2126
▁tricot	-11.2127
atif	-11.2127
▁jugée	-11.2129
▁survivante	-11.2129
▁dormai	-11.2134
▁gelée	-11.2139
▁consciente	-11.2139
▁aura	-11.2141
▁Aimerai	-11.2144
▁join	-11.2148
▁frappée	-11.2149
▁entretenue	-11.215
▁Jetez	-11.215
▁aînée	-11.2152
▁préféré	-11.2154
▁rencontre	-11.2157
▁téléphoner	-11.2161
▁cultive	-11.2162
ors	-11.2167
▁saison	-11.2167
▁narriv	-11.2171
▁arrivetil	-11.2172
▁sub	-11.2179
▁tuera	-11.2183
▁respire	-11.2183
▁pourraient	-11.2197
▁Approche	-11.2211
aud	-11.2214
▁gau	-11.2214
▁haletai	-11.2216
▁rampe	-11.2225
▁travaillerai	-11.2234
▁parties	-11.2237
ouvrir	-11.2241
▁partial	-11.2256
▁connue	-11.2256
▁saisis	-11.226
▁retrouver	-11.2265
▁démissionne	-11.2271
ards	-11.2274
▁cano	-11.2277
insulte	-11.2277
▁plai	-11.2288
▁esc	-11.2299
▁pressée	-11.2303
▁pot	-11.2342
▁saute	-11.2355
▁démarre	-11.2356
▁Sen	-11.2359
tendîmes	-11.2369
▁tentée	-11.2371
venezvous	-11.2373
ratil	-11.2374
▁saurai	-11.2392
▁narrête	-11.2399
▁passai	-11.24
▁suffisante	-11.2403
▁Chantez	-11.2421
▁léch	-11.2423
llum	-11.2442
ravaillons	-11.2448
▁fié	-11.2449
▁décédée	-11.2477
▁gal	-11.2494
▁lue	-11.2495
▁fo	-11.2499
endre	-11.2508
▁Saisissez	-11.251
euses	-11.2515
▁dispute	-11.2521
▁Fie	-11.2523
▁formul	-11.2523
▁patin	-11.2533
▁Lance	-11.2537
▁Viendra	-11.254
▁attir	-11.2541
▁grille	-11.2542
ril	-11.2556
▁frein	-11.2564
▁attaquée	-11.2566
▁coupe	-11.2572
▁reconnaissante	-11.2576
▁yen	-11.2594
▁ly	-11.26
▁madore	-11.262
▁envoyées	-11.262
▁crue	-11.2626
▁hésit	-11.2638
▁soigneu	-11.264
eratil	-11.2646
▁lumières	-11.2647
▁lutilise	-11.265
▁Respecte	-11.2669
ture	-11.267
sco	-11.267
ntendezvous	-11.2674
▁rapproch	-11.2677
▁réce	-11.2683
texte	-11.2683
▁sto	-11.2699
teignit	-11.2704
ob	-11.2725
▁math	-11.2727
▁Traverse	-11.2754
▁suivit	-11.2758
onte	-11.2762
▁travaillestu	-11.2772
▁Nallez	-11.2824
▁sassi	-11.284
▁décidée	-11.2842
▁fasses	-11.2857
iendrai	-11.2867
viendratil	-11.2891
▁sortit	-11.2903
autant	-11.291
arrache	-11.2913
▁noire	-11.2914
rirent	-11.294
om	-11.2953
épaisse	-11.2958
amment	-11.2989
▁cont	-11.2993
▁battons	-11.2994
▁factures	-11.3014
▁eau	-11.3024
aise	-11.3035
université	-11.3037
ode	-11.3057
réci	-11.3064
▁polies	-11.3073
▁mo	-11.3073
▁mart	-11.3091
▁laiss	-11.3092
mi	-11.3105
ru	-11.3164
▁serrés	-11.3171
▁navezvous	-11.3188
▁craignai	-11.3211
▁correspond	-11.322
core	-11.323
▁jur	-11.3244
▁Content	-11.3254
ttons	-11.3274
oc	-11.3281
ttez	-11.3289
▁bail	-11.3298
ras	-11.3313
▁réveillés	-11.3314
▁ramass	-11.3321
▁rumeurs	-11.3332
▁commandes	-11.3334
▁fac	-11.3359
gne	-11.3372
laça	-11.3381
amènerai	-11.3392
▁offic	-11.3418
thé	-11.3446
▁jo	-11.3454
▁aidera	-11.3485
▁nés	-11.3492
▁baissa	-11.3529
▁mangera	-11.3538
▁mét	-11.3539
▁reconnus	-11.3543
lette	-11.3548
▁eff	-11.3585
▁entendues	-11.3597
▁arrivées	-11.3602
znous	-11.3612
▁moqu	-11.3621
ncore	-11.3623
▁craign	-11.3641
▁regardai	-11.3648
ssayez	-11.3666
▁ennuy	-11.3666
▁petits	-11.367
avaient	-11.3696
▁meurtr	-11.3707
▁maimes	-11.3709
▁rendr	-11.372
▁réagi	-11.3723
cée	-11.3737
oyenne	-11.3737
▁rem	-11.3746
▁Amenez	-11.375
rage	-11.3756
rions	-11.3756
▁bavarde	-11.3766
▁chatouille	-11.3778
nte	-11.3779
ve	-11.3785
▁Peuvent	-11.3807
chimi	-11.3811
▁sages	-11.3813
▁Jachète	-11.3819
ol	-11.3852
▁Vrai	-11.3865
zz	-11.3876
▁creuse	-11.389
▁poursuit	-11.3892
▁accu	-11.3918
▁Dispos	-11.3921
▁malheur	-11.3931
rait	-11.394
ccepter	-11.3943
▁inspira	-11.3954
▁nul	-11.3967
rain	-11.4007
çons	-11.4014
seriez	-11.4057
ki	-11.408
▁pay	-11.408
merde	-11.4092
nier	-11.4095
▁arriveron	-11.4106
▁pla	-11.4106
lais	-11.4124
he	-11.4127
▁jouet	-11.4179
âché	-11.419
▁maid	-11.4217
mettez	-11.4228
v	-11.4246
appelle	-11.4265
▁fonctionn	-11.4273
▁marrants	-11.4274
▁rest	-11.4282
ti	-11.4283
ventils	-11.432
▁gla	-11.4331
▁rendues	-11.4338
▁serviettes	-11.4345
▁arrête	-11.4364
▁offens	-11.4365
uin	-11.4367
▁étroit	-11.4367
ube	-11.4378
▁courez	-11.4387
▁réponds	-11.4414
▁lépous	-11.4424
▁fra	-11.4436
▁Sort	-11.4456
▁pic	-11.4466
▁chanta	-11.4468
▁aimer	-11.4476
oche	-11.4488
isible	-11.4516
▁congés	-11.4519
▁polis	-11.4523
▁tira	-11.4532
▁Co	-11.4538
▁suppli	-11.454
ssions	-11.4555
go	-11.4556
▁boîtes	-11.4562
asse	-11.457
omme	-11.4571
al	-11.4574
xcuser	-11.4576
▁reti	-11.4589
▁marré	-11.4597
▁mang	-11.4602
yer	-11.4603
▁embêt	-11.4616
cé	-11.4621
achet	-11.4627
▁mental	-11.4642
▁fêtes	-11.4666
ng	-11.4671
admets	-11.4679
occupe	-11.4686
▁romans	-11.4698
▁pareil	-11.4703
terre	-11.4718
▁marrée	-11.4718
▁résultat	-11.4721
ka	-11.4722
ps	-11.4726
▁nastu	-11.4737
gue	-11.4741
ôt	-11.4747
▁fantôme	-11.4767
▁bouc	-11.477
ûte	-11.4785
bout	-11.4803
ver	-11.481
▁captez	-11.4814
▁gro	-11.4817
arrive	-11.4831
thi	-11.4839
imagin	-11.4841
▁contra	-11.4853
vez	-11.4856
op	-11.4857
pidé	-11.4861
gât	-11.4862
acebo	-11.4863
entraîne	-11.4869
▁nées	-11.4878
▁Dépêchons	-11.488
▁coul	-11.488
teindre	-11.488
adore	-11.4884
écoute	-11.4892
prise	-11.4892
cou	-11.4893
▁chirurgi	-11.4895
▁vaincr	-11.4896
dor	-11.4897
éclair	-11.4908
aimais	-11.4924
▁lexplique	-11.4928
▁comprendra	-11.4928
D	-11.4938
▁voudrai	-11.4939
▁dout	-11.4939
▁col	-11.4942
aliser	-11.4943
croc	-11.4943
commande	-11.4944
bon	-11.495
promis	-11.4951
intention	-11.4951
épaule	-11.4951
étudiant	-11.4955
carte	-11.4957
libre	-11.4957
haut	-11.4957
iver	-11.4957
gnezvous	-11.496
froid	-11.496
iale	-11.4966
▁sauv	-11.4973
▁stati	-11.4974
tour	-11.4975
du	-11.4976
rier	-11.4977
▁Sens	-11.4978
gr	-11.4979
▁Arrivez	-11.498
▁tricote	-11.4981
plaisant	-11.4988
illé	-11.5006
▁Conduisez	-11.501
îné	-11.5015
▁parviendr	-11.5017
rreur	-11.5018
▁gavé	-11.5019
▁retraité	-11.502
min	-11.5021
▁opposé	-11.5023
▁agacé	-11.5023
▁couché	-11.5025
▁tombées	-11.5025
▁léqui	-11.5027
▁paniqu	-11.5028
gi	-11.5032
ouf	-11.5039
élève	-11.5039
▁Joyeu	-11.5042
▁gui	-11.505
▁givré	-11.5051
C	-11.5054
offre	-11.5055
▁camp	-11.5056
▁dépêche	-11.5062
sauter	-11.5065
arrivetil	-11.5069
▁évit	-11.5072
stelle	-11.5073
éserve	-11.5078
▁aig	-11.5084
▁alarmé	-11.5087
▁social	-11.5087
▁contusionné	-11.5088
▁raccordé	-11.5088
▁obéissant	-11.5088
▁garé	-11.5089
▁rusé	-11.5089
▁quami	-11.5089
▁pouv	-11.5091
▁suspendu	-11.5093
qui	-11.5094
▁Red	-11.5104
ppe	-11.5104
irons	-11.5115
▁resplendissant	-11.5116
▁blond	-11.5116
▁hardi	-11.5116
▁dign	-11.5117
▁souriant	-11.5131
▁étrang	-11.5131
euse	-11.5132
▁défait	-11.5133
▁vérifi	-11.5136
▁stress	-11.5138
▁mérit	-11.5139
▁attirant	-11.5139
orte	-11.5139
▁agi	-11.514
▁remont	-11.5141
lancer	-11.5144
▁enlev	-11.5145
flé	-11.5151
genc	-11.5152
▁poul	-11.5154
▁suppl	-11.5155
▁désign	-11.5158
▁déménag	-11.516
▁confond	-11.5165
ouche	-11.5166
evez	-11.5167
▁coo	-11.5167
urent	-11.5168
▁fasciné	-11.517
hanté	-11.5173
▁rob	-11.5173
▁conf	-11.5175
▁délicieu	-11.5179
▁soupir	-11.5181
quitté	-11.5182
▁fumé	-11.5182
▁cloch	-11.5183
▁Fume	-11.5184
▁épais	-11.5184
▁Augmente	-11.5188
vention	-11.5189
▁autr	-11.5189
rche	-11.5198
▁Cherche	-11.52
▁nira	-11.5203
▁Ignore	-11.5204
énergie	-11.5205
▁Nettoy	-11.5207
▁Excusez	-11.521
▁lor	-11.521
ésormais	-11.521
iroir	-11.5211
▁sc	-11.5211
▁agressi	-11.5212
agissaitil	-11.5213
▁cogn	-11.5216
▁causer	-11.5216
mmène	-11.5216
▁Regard	-11.5217
▁recommenc	-11.5217
▁File	-11.5217
apprécions	-11.5217
èg	-11.5218
▁confirm	-11.5218
▁Q	-11.5219
▁merc	-11.5219
▁songe	-11.5221
épris	-11.5224
ossède	-11.5224
▁Partons	-11.5224
rie	-11.5224
allonger	-11.5224
appelez	-11.5226
▁paiera	-11.5226
▁comprenez	-11.5226
nnemi	-11.5226
▁Pardon	-11.5226
corn	-11.5226
▁verra	-11.5226
électrici	-11.5226
ective	-11.5226
▁poussé	-11.5226
▁noub	-11.5227
▁délai	-11.5227
gramme	-11.5227
cuté	-11.5228
▁aujourd	-11.5228
xige	-11.5228
rcul	-11.5228
▁excessi	-11.5228
▁chahut	-11.5228
abilletoi	-11.5228
incendie	-11.5228
▁Ajuste	-11.5228
▁Buvons	-11.5228
▁Concentre	-11.5228
▁Descendons	-11.5228
▁Déverrouille	-11.5228
▁Excusemoi	-11.5228
▁Napproche	-11.5228
▁Occupe	-11.5228
▁Pleuvratil	-11.5228
▁Recommence	-11.5228
▁Relaxe	-11.5228
▁Rendonsnous	-11.5228
▁Rouge	-11.5228
▁Réponds	-11.5228
▁affûté	-11.5228
▁ankylosé	-11.5228
▁appliqué	-11.5228
▁arrangé	-11.5228
▁assoiffé	-11.5228
▁aversion	-11.5228
▁bagarre	-11.5228
▁bouleversé	-11.5228
▁brouillard	-11.5228
▁calcul	-11.5228
▁candidat	-11.5228
▁canular	-11.5228
▁capote	-11.5228
▁chômage	-11.5228
▁claustrophobe	-11.5228
▁club	-11.5228
▁conviendra	-11.5228
▁dauphin	-11.5228
▁débarrassé	-11.5228
▁déchet	-11.5228
▁dégout	-11.5228
▁empoisonné	-11.5228
▁encouragé	-11.5228
▁endommagé	-11.5228
▁entêté	-11.5228
▁excursion	-11.5228
▁farce	-11.5228
▁fassiez	-11.5228
▁fourni	-11.5228
▁fraîche	-11.5228
▁gifla	-11.5228
▁hâlé	-11.5228
▁impulsi	-11.5228
▁insouciant	-11.5228
▁insupportable	-11.5228
▁interpr	-11.5228
▁intrigant	-11.5228
▁introverti	-11.5228
▁irrité	-11.5228
▁mimportune	-11.5228
▁méthod	-11.5228
▁nettoya	-11.5228
▁négatif	-11.5228
▁oignons	-11.5228
▁optimis	-11.5228
▁pensait	-11.5228
▁pilote	-11.5228
▁pleuve	-11.5228
▁prononc	-11.5228
▁prénom	-11.5228
▁raslebol	-11.5228
▁raval	-11.5228
▁récolte	-11.5228
▁récupérer	-11.5228
▁réticent	-11.5228
▁rôti	-11.5228
▁scandal	-11.5228
▁sousestime	-11.5228
▁stimula	-11.5228
▁séclate	-11.5228
▁transparent	-11.5228
▁violent	-11.5228
▁vivrai	-11.5228
▁éléphants	-11.5228
▁établi	-11.5228
▁étonnant	-11.5228
▁Apprends	-11.5228
▁Obéis	-11.5228
▁asiatique	-11.5228
▁attaché	-11.5228
▁cigare	-11.5228
▁fatigue	-11.5228
▁remarqua	-11.5228
▁surréagis	-11.5228
▁éméché	-11.5228
▁Irastu	-11.5228
▁Réforme	-11.5228
▁garanti	-11.5228
▁mapprêt	-11.5228
▁reparti	-11.5228
atterri	-11.5228
▁Serstoi	-11.5228
▁animé	-11.5228
▁embauché	-11.5228
▁fesses	-11.5228
▁jauge	-11.5228
▁journaux	-11.5228
▁sarcas	-11.5228
▁toxico	-11.5228
▁désarmé	-11.5228
▁idéal	-11.5228
▁évadé	-11.5228
altern	-11.5228
▁Taistoi	-11.5228
▁physi	-11.5228
▁retenti	-11.5228
▁signature	-11.5228
▁traîne	-11.5228
▁raffole	-11.5228
▁Irezvous	-11.5228
▁bijou	-11.5228
▁caméra	-11.5228
▁figur	-11.5228
▁Bonsoir	-11.5228
▁objective	-11.5228
▁positive	-11.5228
▁Rentrons	-11.5228
▁bourgade	-11.5228
▁décoll	-11.5228
▁Creuse	-11.5228
▁loreille	-11.5228
▁remboursement	-11.5228
▁sacrifi	-11.5228
▁hibou	-11.5228
▁excessive	-11.5228
▁répète	-11.5228
elouse	-11.5228
▁baquet	-11.5228
▁lécri	-11.5228
ception	-11.5228
▁Souviens	-11.5228
▁Rencontr	-11.5228
▁frigo	-11.5228
ork	-11.5228
▁amende	-11.5228
▁sanglot	-11.5228
▁Téléphonelui	-11.5228
nonça	-11.5228
▁tuyau	-11.5228
▁raquette	-11.5228
▁sorci	-11.5228
▁amateur	-11.5228
▁plaigne	-11.5228
▁recalé	-11.5228
▁requête	-11.5228
éroport	-11.5228
▁dannée	-11.5228
▁délit	-11.5228
▁apprécia	-11.5228
▁garage	-11.5228
▁pincé	-11.5228
▁couramment	-11.5228
▁plaqué	-11.5228
▁fâche	-11.5228
▁commère	-11.5228
herbe	-11.5228
▁souvient	-11.5228
▁Ravi	-11.5228
▁moururent	-11.5228
endance	-11.5228
▁fantasque	-11.5228
▁joyeux	-11.5228
▁balay	-11.5228
écur	-11.5229
▁Tinquiète	-11.5229
▁écharpe	-11.5229
▁essentiel	-11.5229
▁folie	-11.5229
▁géolo	-11.5229
▁musulman	-11.5229
▁Mêle	-11.5229
orité	-11.5229
▁péni	-11.5229
▁étrangère	-11.5229
▁ravissant	-11.5229
▁dépass	-11.5229
▁déval	-11.5229
▁prune	-11.5229
▁vieillit	-11.5229
▁moustique	-11.5229
▁massive	-11.5229
▁redire	-11.5229
▁tattendrai	-11.5229
▁Reposetoi	-11.5229
▁Aidenous	-11.5229
▁détruir	-11.5229
▁gou	-11.5229
▁visiteurs	-11.5229
électricité	-11.5229
▁nommeton	-11.5229
▁interdit	-11.5229
▁routière	-11.5229
▁envoie	-11.5229
▁Jaiderai	-11.5229
lisation	-11.5229
▁protect	-11.523
▁célébr	-11.523
▁noya	-11.523
▁Demandeleur	-11.523
▁poète	-11.523
▁potage	-11.523
▁séteigni	-11.523
▁bénéfi	-11.523
▁rideau	-11.523
cture	-11.523
▁voudriezvous	-11.523
▁pluvieux	-11.523
ifique	-11.523
▁particip	-11.523
▁exige	-11.523
▁chevelure	-11.523
▁querell	-11.523
▁baigne	-11.5231
▁jeudi	-11.5231
▁soulier	-11.5231
▁sennuie	-11.5231
▁odieuse	-11.5231
▁Aideznous	-11.5231
▁consum	-11.5231
itude	-11.5231
▁comédien	-11.5231
▁décoré	-11.5231
▁coton	-11.5231
gg	-11.5231
▁rencontrai	-11.5231
▁voulions	-11.5231
▁miséricordieuse	-11.5231
▁mallonger	-11.5231
▁obligat	-11.5231
▁démissionnons	-11.5232
▁relaxant	-11.5232
▁Dix	-11.5232
jong	-11.5232
▁samuse	-11.5232
▁colline	-11.5232
▁géran	-11.5232
▁dim	-11.5232
oseille	-11.5232
▁parages	-11.5232
▁Calmezvous	-11.5232
▁moche	-11.5232
▁attendîmes	-11.5232
▁casier	-11.5233
▁euro	-11.5233
▁sauraisje	-11.5233
▁concouru	-11.5233
▁direction	-11.5233
▁causerait	-11.5234
▁couronsnous	-11.5234
▁aboya	-11.5234
▁distin	-11.5234
▁outrag	-11.5234
étude	-11.5234
▁raconté	-11.5234
rivé	-11.5235
▁Donnezlemoi	-11.5236
▁rendîmes	-11.5236
▁viendratelle	-11.5236
▁croyezvous	-11.5236
▁dentaire	-11.5236
oquée	-11.5236
▁repasser	-11.5237
mettrai	-11.5237
▁tennuie	-11.5237
▁vex	-11.5238
▁divertissant	-11.5238
rouillé	-11.5238
paquet	-11.5238
▁saoule	-11.5238
▁aboyait	-11.5238
▁tirez	-11.5238
▁darrêter	-11.5238
▁dob	-11.5239
▁drap	-11.5239
▁requin	-11.5239
▁peintre	-11.5239
▁Rappellemoi	-11.524
▁Tentez	-11.524
▁déplacer	-11.524
▁tentons	-11.524
mo	-11.524
▁dinformation	-11.524
▁Donnelemoi	-11.5241
▁déchiré	-11.5241
adeau	-11.5241
▁Fous	-11.5241
▁Bats	-11.5242
▁plaisantons	-11.5242
▁ému	-11.5242
▁lirai	-11.5243
▁souven	-11.5243
▁pian	-11.5243
▁pointure	-11.5243
▁concentré	-11.5244
rousse	-11.5244
▁emmerdeu	-11.5244
▁Posele	-11.5244
▁louvrir	-11.5244
▁importetil	-11.5244
curité	-11.5245
▁prenezvous	-11.5245
▁répét	-11.5246
▁soci	-11.5246
▁conserv	-11.5246
▁appelezvous	-11.5246
▁séché	-11.5246
▁Jappellerai	-11.5246
▁poire	-11.5246
▁pareille	-11.5247
▁termine	-11.5247
▁bonbon	-11.5247
orange	-11.5247
▁tépouser	-11.5247
▁jugement	-11.5248
veau	-11.5248
uisé	-11.5248
▁circul	-11.5248
▁consulté	-11.5248
▁kidnappé	-11.5248
▁lavertir	-11.5248
▁envieuse	-11.5248
▁entraîné	-11.5249
▁craqu	-11.525
▁attendait	-11.525
▁jal	-11.525
▁complex	-11.5251
▁marnaque	-11.5251
▁coopér	-11.5251
création	-11.5252
▁cultivé	-11.5253
guer	-11.5253
▁tamène	-11.5255
▁commanderai	-11.5256
▁Utilisele	-11.5256
▁Levez	-11.5257
▁signerai	-11.5257
▁révélé	-11.5258
▁déserte	-11.5259
▁évanouie	-11.5259
▁fortunée	-11.5259
▁couvert	-11.526
▁Profitez	-11.526
▁claque	-11.526
xiste	-11.5261
▁gratte	-11.5262
▁ennuyons	-11.5262
▁Dansons	-11.5264
▁montèrent	-11.5265
▁lentendi	-11.5265
▁juger	-11.5265
▁essayez	-11.5265
▁foin	-11.5266
▁sarrêter	-11.5266
▁quitta	-11.5268
▁bondi	-11.5268
▁types	-11.5268
▁lignorent	-11.5271
▁épargn	-11.5271
▁clément	-11.5273
▁soupira	-11.5275
hic	-11.5276
ntrée	-11.5276
▁mouill	-11.5277
▁tirée	-11.5277
▁actrice	-11.5279
▁présenterai	-11.5279
▁hoch	-11.528
▁regardons	-11.528
▁Lalarme	-11.5282
▁poussée	-11.5282
▁agit	-11.5283
▁imp	-11.5283
▁prévenant	-11.5286
▁gaz	-11.5286
abri	-11.5286
▁envoyés	-11.5286
▁Pleure	-11.5288
marqué	-11.5288
▁respectons	-11.5288
▁Appellele	-11.5289
poison	-11.529
▁confondu	-11.5291
▁fermement	-11.5293
ge	-11.5294
▁propriét	-11.5295
▁déciderons	-11.5295
▁tom	-11.5296
▁joua	-11.5296
▁tirerai	-11.5297
battit	-11.5298
▁suit	-11.5298
▁vaincu	-11.5299
▁Défend	-11.5299
▁vingt	-11.53
▁souvienstu	-11.53
▁abruti	-11.53
▁vulnérable	-11.53
▁science	-11.53
▁rôle	-11.5301
▁vivezvous	-11.5301
▁peureuse	-11.5301
▁active	-11.5302
▁amener	-11.5302
▁chère	-11.5304
exagér	-11.5307
▁écoutez	-11.531
▁enflé	-11.5311
absurdité	-11.5312
▁patienter	-11.5312
▁apparue	-11.5314
ûre	-11.5315
▁saisi	-11.5315
▁déloyale	-11.5316
▁découvrir	-11.5317
▁Mani	-11.5318
▁remonté	-11.5319
▁manquerez	-11.532
▁ours	-11.5321
▁Mapprécie	-11.5322
ritu	-11.5322
▁réduit	-11.5322
scient	-11.5325
▁Parlezmoi	-11.5327
▁aimant	-11.533
▁lâcher	-11.5332
li	-11.5332
▁visiter	-11.5336
▁mile	-11.5336
▁débuta	-11.5338
traité	-11.5339
▁prié	-11.5341
▁roul	-11.5342
▁rendil	-11.5342
▁saurons	-11.5343
▁insectes	-11.5344
▁diamants	-11.5344
▁générale	-11.5347
▁Donnelel	-11.5349
▁ennuyant	-11.535
sieur	-11.5351
▁restent	-11.5352
▁piqu	-11.5354
▁classé	-11.5356
orgue	-11.5363
▁Expliquez	-11.5365
ramb	-11.5366
▁mention	-11.5367
gale	-11.5368
▁teint	-11.5369
▁suspendue	-11.537
▁clémente	-11.537
▁contusionnée	-11.537
▁raccordée	-11.537
▁obéissante	-11.537
▁quamie	-11.537
▁garée	-11.537
▁barb	-11.5371
▁rusée	-11.5372
▁souriante	-11.5373
▁tenezvous	-11.5374
▁fumez	-11.5376
▁contacté	-11.5378
▁vein	-11.5382
▁taba	-11.5387
▁héroïn	-11.5388
▁mesurer	-11.5389
▁boutonn	-11.5394
cle	-11.5398
▁tranch	-11.5403
▁partager	-11.5404
appela	-11.5404
▁Parlemoi	-11.5409
▁coupée	-11.5415
ssion	-11.5421
oudre	-11.5422
éro	-11.5424
▁aventure	-11.5425
▁courtoise	-11.5427
▁imprudente	-11.5427
▁fainéante	-11.5427
▁fascinante	-11.5427
▁incompétente	-11.5427
▁cernée	-11.5427
▁horaire	-11.5427
▁remuée	-11.5427
▁fle	-11.5427
▁amicale	-11.5432
▁observe	-11.5432
nsé	-11.5434
▁bougea	-11.5435
sonner	-11.5436
▁souciez	-11.5438
▁autorise	-11.5438
▁derreur	-11.544
▁gé	-11.5441
▁commencerons	-11.5443
▁sociale	-11.5445
▁tournai	-11.5451
ouvrit	-11.5455
▁bougon	-11.546
venons	-11.5462
▁exacte	-11.5463
▁assistant	-11.5466
▁const	-11.5471
▁cachai	-11.5477
▁branchée	-11.5484
▁obligée	-11.5484
▁sélectionnée	-11.5484
demment	-11.5487
▁épi	-11.5488
imaginer	-11.549
▁dress	-11.5494
investisse	-11.5496
▁négocier	-11.5512
▁précipité	-11.5515
▁souviendr	-11.5516
▁étroite	-11.5517
▁salé	-11.5521
▁achèterai	-11.5525
hir	-11.553
▁chapeaux	-11.5535
▁sala	-11.5538
▁séjourner	-11.554
▁pardonnée	-11.5543
▁arrogante	-11.5543
ives	-11.5544
▁experts	-11.5547
▁tattendais	-11.5548
rf	-11.5548
lam	-11.555
▁mineurs	-11.5555
▁traversa	-11.5557
▁croc	-11.556
▁délicate	-11.5561
▁achet	-11.5562
▁attendais	-11.5564
▁alarmée	-11.5565
▁joigne	-11.5565
▁noter	-11.5571
▁tattendre	-11.558
aliste	-11.5582
pin	-11.5582
▁tél	-11.5583
▁Prenezle	-11.5586
oussol	-11.5588
▁amuse	-11.5588
▁dérangée	-11.5602
▁Prendsle	-11.5606
▁rage	-11.5609
péter	-11.5619
reine	-11.562
▁avenir	-11.5624
▁harcel	-11.5628
▁radi	-11.563
▁rêverai	-11.5631
▁rappellestu	-11.5634
▁chich	-11.5635
▁chirurgie	-11.5643
▁obéit	-11.5643
▁lépel	-11.5648
▁ki	-11.5649
eindre	-11.565
▁Br	-11.5654
▁ruinée	-11.5659
▁douée	-11.5659
▁améliorée	-11.5659
▁noyée	-11.5659
▁seau	-11.566
▁aidemoi	-11.566
▁respecté	-11.5661
▁avertie	-11.5662
▁choisie	-11.5662
dess	-11.5669
▁habituer	-11.5676
▁terrifiée	-11.5677
nc	-11.5684
▁volent	-11.5692
▁trouvés	-11.5695
▁boite	-11.5696
▁reculer	-11.5697
▁maiderait	-11.5699
▁dotée	-11.5719
rons	-11.572
▁paniquée	-11.5721
kie	-11.5725
▁attrape	-11.5725
uriez	-11.5729
▁continue	-11.5729
▁insiste	-11.5737
▁parlerons	-11.5737
ères	-11.5742
▁ric	-11.5744
▁buvai	-11.5748
▁entrée	-11.575
▁lambi	-11.5755
▁devr	-11.5761
▁résultats	-11.5761
▁tenez	-11.5762
▁Mé	-11.5764
▁pareils	-11.5764
▁marchai	-11.5764
dresser	-11.5765
▁flanch	-11.5774
▁éveillée	-11.5777
▁brûlée	-11.5779
▁vendue	-11.5782
▁tendue	-11.5789
▁disposer	-11.5791
ries	-11.5801
▁rendstu	-11.581
ces	-11.5815
▁regardais	-11.5825
▁construite	-11.584
▁lim	-11.5849
▁haïssai	-11.5856
▁Regardemoi	-11.5871
▁arrêtes	-11.5872
▁plate	-11.5874
embête	-11.5881
▁assurée	-11.59
▁Embrasse	-11.5907
▁Bouge	-11.5934
laire	-11.5939
▁ve	-11.595
▁faitelle	-11.595
▁réalis	-11.5959
▁fouill	-11.5962
mie	-11.5968
▁choi	-11.5969
▁morale	-11.597
dépendant	-11.599
▁sauc	-11.6
▁enf	-11.6008
▁an	-11.6009
▁Po	-11.601
mille	-11.6015
▁Jé	-11.6023
▁crevée	-11.6024
▁parlerai	-11.6025
▁montrée	-11.6026
iète	-11.6029
▁Compare	-11.6035
▁senfuir	-11.6042
▁ren	-11.6055
▁Prête	-11.6057
▁descendr	-11.6061
▁fourre	-11.6067
▁poser	-11.6068
▁mourr	-11.6084
▁Fichez	-11.6097
▁perr	-11.611
▁pét	-11.6114
▁église	-11.6123
▁serastu	-11.6127
imons	-11.614
▁prisonni	-11.6155
▁he	-11.6157
▁foutre	-11.6165
▁tante	-11.6166
▁appren	-11.6171
▁rougis	-11.6192
▁meure	-11.6196
▁taquin	-11.62
▁excitante	-11.6209
cédé	-11.6212
▁courai	-11.6223
▁gagnera	-11.6237
▁posé	-11.6245
rater	-11.6245
cam	-11.6251
▁Pousse	-11.6255
▁conseille	-11.6263
▁jusque	-11.6264
attraperons	-11.6271
▁restés	-11.6275
▁th	-11.6318
▁nourris	-11.6323
duction	-11.6331
amin	-11.636
▁lenseigner	-11.637
▁trahis	-11.6395
▁cris	-11.6429
▁policiers	-11.6436
▁ban	-11.6444
▁perce	-11.6455
▁effrontées	-11.6477
▁trouble	-11.6485
▁donn	-11.6492
undi	-11.6496
▁haute	-11.6514
jouons	-11.6529
▁plats	-11.654
médi	-11.6548
achèterai	-11.6549
▁cach	-11.6561
agère	-11.6567
▁mini	-11.6582
aré	-11.6591
▁monte	-11.6604
▁laccepte	-11.6609
▁voisins	-11.6616
aientelles	-11.6621
enfant	-11.6634
oquet	-11.6648
▁satisfai	-11.6665
▁produi	-11.6668
▁tartes	-11.6672
▁blâm	-11.6692
osit	-11.6692
▁répondez	-11.6694
▁Fouille	-11.6695
m	-11.6707
éance	-11.6712
assiste	-11.672
▁continuai	-11.6729
▁recul	-11.6762
étaisje	-11.6768
▁répara	-11.6777
▁ouverts	-11.6795
▁cons	-11.6809
▁séclair	-11.6832
▁captes	-11.6836
▁jen	-11.6846
▁attent	-11.6848
out	-11.6887
▁ad	-11.689
▁tombés	-11.6909
▁vouliez	-11.6912
▁mennuies	-11.6912
▁cidess	-11.6921
▁assistan	-11.6922
▁effrontés	-11.693
▁fa	-11.6934
arabi	-11.6935
▁suiv	-11.6936
▁torture	-11.6948
▁pose	-11.699
▁ju	-11.6997
raiment	-11.7046
▁gèrer	-11.7112
ots	-11.7114
▁flipp	-11.7123
▁Fi	-11.7134
▁mappréci	-11.7142
▁prés	-11.7144
veniez	-11.7148
▁années	-11.7158
▁dorme	-11.7177
ient	-11.7182
▁cen	-11.7193
▁réc	-11.7194
▁brille	-11.72
▁entrés	-11.7224
▁lon	-11.7295
▁van	-11.7314
▁satisf	-11.7346
▁plaisant	-11.735
atelle	-11.7407
▁dautres	-11.7415
▁sincères	-11.7415
▁boue	-11.7432
▁So	-11.7436
▁Éloignez	-11.745
ées	-11.7487
masque	-11.749
▁Goûte	-11.7491
▁espère	-11.7501
▁nuage	-11.7507
espérai	-11.7518
▁méchappe	-11.7519
▁Rejoi	-11.753
▁dorment	-11.7534
▁Lib	-11.7541
▁promo	-11.7569
▁ramasse	-11.7579
allum	-11.758
▁sensé	-11.7585
▁résou	-11.7588
ou	-11.7606
▁lescal	-11.7622
▁pneus	-11.7669
▁not	-11.7703
aître	-11.7706
▁aida	-11.7709
▁débi	-11.7719
taire	-11.7722
▁gère	-11.7752
▁Cherchez	-11.7756
▁Goûtez	-11.7757
lleux	-11.7789
▁nécouta	-11.7804
▁pensez	-11.7826
▁restées	-11.7845
▁chari	-11.7849
▁mentend	-11.785
▁java	-11.7896
▁naur	-11.7915
▁Fo	-11.793
lard	-11.7933
ventil	-11.7933
▁rela	-11.7958
▁gr	-11.7968
ad	-11.7983
ienne	-11.8037
▁tousse	-11.8041
▁chass	-11.8053
▁pend	-11.8087
onn	-11.81
▁épouser	-11.8105
entils	-11.8125
visag	-11.8129
▁avocats	-11.8129
▁répu	-11.8132
▁exempl	-11.8146
imer	-11.8152
▁nourrir	-11.8183
▁Quitte	-11.8185
▁habit	-11.8188
▁pipe	-11.8191
▁repass	-11.8207
iversité	-11.8208
▁tendi	-11.8241
▁tuez	-11.8251
▁mani	-11.8343
appartien	-11.8353
ec	-11.8368
co	-11.8382
matur	-11.8396
▁voil	-11.8398
▁pleins	-11.8432
ctions	-11.8436
atil	-11.8439
▁vente	-11.8458
▁appellera	-11.8465
▁naide	-11.8467
ssez	-11.8479
▁planifi	-11.8482
vo	-11.8484
où	-11.8486
▁prises	-11.8495
▁Travers	-11.8508
▁ir	-11.8525
or	-11.8527
cueilli	-11.8545
voyons	-11.8545
▁remerci	-11.8554
▁cherch	-11.8555
entelles	-11.8577
▁consol	-11.8578
▁Léquip	-11.8591
▁Remettezle	-11.8615
▁Respectez	-11.8659
ace	-11.8666
▁troubl	-11.8683
▁Entend	-11.869
▁ru	-11.8692
nspira	-11.8705
▁magi	-11.8706
▁hésita	-11.872
usé	-11.8725
▁confectionna	-11.8727
vion	-11.8734
▁fich	-11.8744
▁économ	-11.8745
enez	-11.8771
excuser	-11.8775
▁soign	-11.8775
▁tromp	-11.8778
▁porta	-11.8797
▁fla	-11.8815
voyezvous	-11.8819
▁entr	-11.8827
og	-11.8837
▁disput	-11.886
vertu	-11.8875
▁lenseigne	-11.8878
▁los	-11.8899
▁couvr	-11.8919
trice	-11.8931
fa	-11.8943
▁Prie	-11.8948
▁écha	-11.8954
▁norma	-11.8964
▁text	-11.8965
uve	-11.8968
▁appeller	-11.8971
▁Japporte	-11.8998
▁senfui	-11.9023
▁intentions	-11.9046
▁Finiss	-11.9047
net	-11.9051
▁réf	-11.9071
▁sexcus	-11.9074
▁Marchez	-11.9099
ché	-11.9106
pi	-11.9139
prouverai	-11.9144
vienstu	-11.9144
inviter	-11.9179
eusement	-11.9208
▁habitent	-11.9227
▁franche	-11.9244
ieux	-11.9298
▁cherchez	-11.9312
▁concentr	-11.9325
▁rêv	-11.9332
lexi	-11.9333
▁âme	-11.9335
couru	-11.9339
uses	-11.9354
rop	-11.9369
né	-11.9377
▁cuisin	-11.9377
▁dép	-11.9392
endezvous	-11.9405
▁étudia	-11.9406
▁hurla	-11.9417
spérant	-11.9423
▁retrouve	-11.9434
tenir	-11.9439
▁gl	-11.9439
expéri	-11.9445
exerce	-11.945
iter	-11.9465
▁poi	-11.9466
▁brill	-11.9467
▁veille	-11.9477
▁dressa	-11.9508
▁pos	-11.9538
▁ob	-11.9549
ite	-11.9556
estu	-11.9582
çon	-11.9595
▁mineur	-11.9613
▁subi	-11.9613
int	-11.9622
risé	-11.9624
▁oubliée	-11.9632
ppât	-11.9638
nfant	-11.9639
▁passera	-11.9665
ive	-11.9665
amène	-11.9665
▁remets	-11.9666
ica	-11.9668
▁copain	-11.9672
▁prov	-11.968
ph	-11.9684
échoue	-11.9689
▁lemport	-11.9693
▁passionn	-11.9694
arracher	-11.97
▁délicat	-11.9706
cale	-11.9708
▁Dé	-11.9734
▁plut	-11.9738
ondre	-11.9741
▁empêche	-11.9741
▁cochon	-11.9744
▁sauva	-11.9746
▁nattend	-11.9748
▁ongle	-11.9749
▁soutien	-11.9762
donnezmoi	-11.9765
ervice	-11.9766
▁dollar	-11.9776
▁cann	-11.9778
▁soupçon	-11.9781
gu	-11.9788
mettre	-11.9789
▁noubli	-11.9809
rate	-11.981
▁fleur	-11.9814
▁gard	-11.9825
arrête	-11.9831
attrape	-11.9835
née	-11.9841
prendil	-11.9846
ange	-11.9846
rale	-11.985
▁expert	-11.9851
arg	-11.9856
▁voudr	-11.9859
▁contract	-11.986
lu	-11.9867
épic	-11.9872
▁béni	-11.9874
libéré	-11.9876
éternue	-11.9877
empire	-11.9879
▁lèvre	-11.9888
achète	-11.9894
cha	-11.9894
isé	-11.99
observe	-11.9903
dans	-11.9906
pel	-11.9907
horaire	-11.9911
asseoir	-11.9914
obéi	-11.9919
alimentation	-11.9921
po	-11.9924
isses	-11.9925
foncé	-11.9934
soûl	-11.9934
hy	-11.9938
imbécile	-11.994
ingénieu	-11.9943
commun	-11.9944
disponible	-11.9946
copie	-11.9948
connu	-11.995
▁arrêtez	-11.9951
▁sépar	-11.9952
raisonnable	-11.9952
F	-11.9954
souris	-11.9954
poli	-11.9955
conduit	-11.9956
suffisant	-11.9957
change	-11.9957
jo	-11.9958
voilà	-11.9958
fermé	-11.9958
propre	-11.9958
frère	-11.9958
plaît	-11.9963
cœur	-11.9964
allonsnous	-11.9964
neuf	-11.9964
▁dorm	-11.9968
J	-11.9968
illégal	-11.9968
▁péd	-11.9969
▁échouer	-11.9969
resser	-11.9971
demain	-11.9973
belle	-11.9973
▁mor	-11.9974
batt	-11.9977
monde	-11.9984
muse	-11.9984
▁grond	-11.9986
dire	-11.9986
M	-11.9987
ivement	-11.9994
dix	-11.9996
danse	-11.9997
▁dessiné	-12.0001
▁insist	-12.0002
ham	-12.0003
▁émoti	-12.0004
▁discu	-12.0005
▁Explique	-12.0008
▁autori	-12.0013
écoutestu	-12.0019
▁fêt	-12.002
ncé	-12.0021
▁engourdi	-12.0023
▁dévoué	-12.0023
▁rond	-12.0025
rouvé	-12.0027
▁banqu	-12.0032
▁cur	-12.0037
rique	-12.0038
▁obti	-12.0046
▁montra	-12.0046
agne	-12.005
▁quitt	-12.0053
gnan	-12.0061
▁vendez	-12.0062
moins	-12.0065
roc	-12.0075
▁rédui	-12.0076
ffert	-12.008
▁découvri	-12.0084
▁déloyal	-12.009
rnaque	-12.009
cessa	-12.0091
▁développ	-12.0091
▁Appel	-12.0091
tenez	-12.0093
▁darr	-12.0095
▁impatien	-12.0095
jeux	-12.0096
attende	-12.0108
▁Tel	-12.0109
odie	-12.011
▁anxieu	-12.011
▁for	-12.0112
▁utilise	-12.0116
▁impr	-12.0118
ule	-12.0124
ivr	-12.0125
rabe	-12.0126
▁quelquesun	-12.0127
trouvé	-12.0128
▁commenc	-12.0128
▁apparu	-12.0129
mprovis	-12.013
mm	-12.0131
▁diplôm	-12.0131
musée	-12.0135
vre	-12.0138
▁dessin	-12.0139
▁ignora	-12.0149
▁fui	-12.0149
▁brav	-12.0151
oncer	-12.0152
cité	-12.0153
▁Étudi	-12.0153
▁bêt	-12.0153
▁reviendr	-12.0156
locat	-12.0158
signé	-12.016
visible	-12.0162
▁divorc	-12.0163
▁chemis	-12.0165
▁épou	-12.0166
▁corrig	-12.0167
▁incliné	-12.0171
ature	-12.0172
▁termin	-12.0172
ntier	-12.0172
cide	-12.0172
▁vêtu	-12.0174
▁influen	-12.0177
▁suivant	-12.0177
▁humain	-12.0178
▁bouché	-12.018
▁peindr	-12.0181
▁passées	-12.0181
▁positi	-12.0182
oqué	-12.0188
▁lall	-12.0189
indo	-12.0191
pérez	-12.0192
▁Obt	-12.0194
ranch	-12.0194
▁élev	-12.0195
▁Sou	-12.0196
llez	-12.0196
quin	-12.02
cta	-12.0201
▁prop	-12.0201
▁Jéprouv	-12.0202
▁secou	-12.0204
▁grogn	-12.0204
▁augment	-12.0206
▁frustr	-12.0206
information	-12.0206
▁fêl	-12.0206
▁déchir	-12.0207
▁licenci	-12.0207
▁tremp	-12.0207
▁gên	-12.0207
▁choqu	-12.0208
▁meilleurs	-12.0208
▁survi	-12.0208
ommage	-12.0208
ianis	-12.0209
▁Rappelle	-12.0211
▁caf	-12.0211
étiez	-12.0212
▁infect	-12.0212
▁séch	-12.0213
▁Rappelez	-12.0213
▁Aidez	-12.0213
vice	-12.0213
gressive	-12.0213
▁réfléchi	-12.0213
▁invit	-12.0214
▁ressemblez	-12.0214
▁dram	-12.0214
▁mennuye	-12.0215
▁mentionn	-12.0215
instru	-12.0215
ntra	-12.0216
automne	-12.0216
eureusement	-12.0216
èche	-12.0216
iché	-12.0217
sseye	-12.0217
offensi	-12.0217
estomac	-12.0217
▁endorm	-12.0218
▁pénétr	-12.0218
▁romp	-12.0218
exercice	-12.0218
pliquer	-12.0218
▁Mo	-12.0219
▁confess	-12.0219
insinue	-12.022
▁verbal	-12.022
▁règ	-12.022
▁complète	-12.022
▁Calme	-12.022
pagne	-12.0221
acquisition	-12.0221
saisiss	-12.0221
▁bruya	-12.0221
êle	-12.0221
▁ponctu	-12.0222
aï	-12.0222
▁miséricordieu	-12.0222
▁fonction	-12.0222
registre	-12.0222
▁crimin	-12.0223
▁stupéf	-12.0223
▁chevelu	-12.0223
▁excell	-12.0224
▁merveille	-12.0224
▁comédie	-12.0224
▁judicieu	-12.0224
▁chop	-12.0225
impression	-12.0225
élébr	-12.0225
▁conco	-12.0225
odeur	-12.0225
spèce	-12.0225
▁Étudie	-12.0225
compétent	-12.0225
pêché	-12.0225
▁illéga	-12.0225
shabille	-12.0225
▁Évi	-12.0226
ermin	-12.0226
▁concour	-12.0226
ntraîneur	-12.0226
intrigu	-12.0226
antastique	-12.0226
▁cac	-12.0226
audra	-12.0226
▁tempor	-12.0227
élicit	-12.0227
accrocha	-12.0227
tînmes	-12.0227
▁gorg	-12.0227
▁horri	-12.0227
uj	-12.0227
▁franc	-12.0227
▁mémo	-12.0227
rhum	-12.0227
upide	-12.0227
▁battra	-12.0228
èque	-12.0228
ppare	-12.0228
hypocri	-12.0228
▁débar	-12.0228
élabor	-12.0228
▁Divis	-12.0228
▁Défai	-12.0228
▁Démonte	-12.0228
▁Fournis	-12.0228
▁apprivois	-12.0228
▁apprêté	-12.0228
▁condescendan	-12.0228
▁hallucin	-12.0228
▁marmonn	-12.0228
▁prolong	-12.0228
▁synchronisé	-12.0228
▁trépass	-12.0228
▁Épouse	-12.0228
assidu	-12.0228
avouer	-12.0228
efeu	-12.0228
enveloppe	-12.0228
haïland	-12.0228
ignorance	-12.0228
intérêt	-12.0228
mètres	-12.0228
économie	-12.0228
éventail	-12.0228
▁Abandonne	-12.0228
▁Aiguise	-12.0228
▁Allonge	-12.0228
▁Apprête	-12.0228
▁Arrose	-12.0228
▁Chauffe	-12.0228
▁Cloue	-12.0228
▁Comprenezvous	-12.0228
▁Concentronsnous	-12.0228
▁Contrôle	-12.0228
▁Contrôlonsl	-12.0228
▁Cuisine	-12.0228
▁Décidetoi	-12.0228
▁Décidezvous	-12.0228
▁Emballe	-12.0228
▁Embauche	-12.0228
▁Enfonce	-12.0228
▁Enfourche	-12.0228
▁Exclu	-12.0228
▁Identifie	-12.0228
▁Jarrose	-12.0228
▁Mémorisel	-12.0228
▁Mémorisezl	-12.0228
▁Naccuse	-12.0228
▁Nappuye	-12.0228
▁Oublions	-12.0228
▁Persuade	-12.0228
▁Protégez	-12.0228
▁Ramasse	-12.0228
▁Rejoue	-12.0228
▁Reprends	-12.0228
▁Reprenez	-12.0228
▁Rougis	-12.0228
▁Russie	-12.0228
▁Saturne	-12.0228
▁Sciences	-12.0228
▁Tinstallestu	-12.0228
▁Traduis	-12.0228
▁Vérifions	-12.0228
▁affolé	-12.0228
▁affrét	-12.0228
▁ajouter	-12.0228
▁assassiné	-12.0228
▁assiedstoi	-12.0228
▁automobile	-12.0228
▁avoué	-12.0228
▁baignoire	-12.0228
▁blessure	-12.0228
▁braconn	-12.0228
▁bétail	-12.0228
▁bûche	-12.0228
▁calendrier	-12.0228
▁chagrin	-12.0228
▁cloîtré	-12.0228
▁cocaïne	-12.0228
▁cocufié	-12.0228
▁congelée	-12.0228
▁contrefaçon	-12.0228
▁converti	-12.0228
▁conçu	-12.0228
▁cérébral	-12.0228
▁daboiement	-12.0228
▁discrédité	-12.0228
▁dorénavant	-12.0228
▁déboucl	-12.0228
▁déconcert	-12.0228
▁déconnecté	-12.0228
▁découragé	-12.0228
▁découvre	-12.0228
▁démuni	-12.0228
▁dénoncé	-12.0228
▁dépensé	-12.0228
▁déshydraté	-12.0228
▁emmen	-12.0228
▁emménag	-12.0228
▁empaquet	-12.0228
▁empr	-12.0228
▁endetté	-12.0228
▁enthousiasm	-12.0228
▁envahi	-12.0228
▁exploit	-12.0228
▁exténué	-12.0228
▁flingué	-12.0228
▁floué	-12.0228
▁fragile	-12.0228
▁frontière	-12.0228
▁funérailles	-12.0228
▁gigantesque	-12.0228
▁gourmand	-12.0228
▁gribouille	-12.0228
▁gymnas	-12.0228
▁hamburger	-12.0228
▁historien	-12.0228
▁incarcéré	-12.0228
▁lamentablement	-12.0228
▁lobjet	-12.0228
▁létrangl	-12.0228
▁maboie	-12.0228
▁mempoisonne	-12.0228
▁migraine	-12.0228
▁mécanicien	-12.0228
▁mécontent	-12.0228
▁méfi	-12.0228
▁mélang	-12.0228
▁ménerve	-12.0228
▁observé	-12.0228
▁obsolète	-12.0228
▁occupons	-12.0228
▁parfum	-12.0228
▁pencha	-12.0228
▁perfection	-12.0228
▁persuadé	-12.0228
▁persév	-12.0228
▁pleuvait	-12.0228
▁poignard	-12.0228
▁pourboire	-12.0228
▁protégé	-12.0228
▁pseudo	-12.0228
▁périclit	-12.0228
▁rejeta	-12.0228
▁reprends	-12.0228
▁rythme	-12.0228
▁réchappé	-12.0228
▁réconfortant	-12.0228
▁rétabli	-12.0228
▁saignait	-12.0228
▁scellé	-12.0228
▁scolaire	-12.0228
▁scolarisé	-12.0228
▁scénari	-12.0228
▁sermonn	-12.0228
▁soudoyé	-12.0228
▁sousestimé	-12.0228
▁spontané	-12.0228
▁trébuché	-12.0228
▁Échauffe	-12.0228
▁Économi	-12.0228
▁Élargis	-12.0228
▁ÉtatsUnis	-12.0228
▁échoua	-12.0228
▁éduqué	-12.0228
▁époque	-12.0228
▁étasunien	-12.0228
▁Désactive	-12.0228
▁Pioche	-12.0228
▁prince	-12.0228
poussiére	-12.0228
résor	-12.0228
ternité	-12.0228
éponge	-12.0228
▁Contacte	-12.0228
▁Croque	-12.0228
▁Ralentis	-12.0228
▁Relâche	-12.0228
▁confronté	-12.0228
▁dissimul	-12.0228
▁débouchonn	-12.0228
▁détourn	-12.0228
▁extra	-12.0228
▁gracié	-12.0228
▁lhuile	-12.0228
▁myope	-12.0228
▁poney	-12.0228
▁rempli	-12.0228
▁subitement	-12.0228
▁surestime	-12.0228
▁ultime	-12.0228
▁vœu	-12.0228
écrivis	-12.0228
▁Brosse	-12.0228
▁Plaisante	-12.0228
▁Poursuiv	-12.0228
▁Promet	-12.0228
▁Souhaite	-12.0228
▁barbare	-12.0228
▁chrono	-12.0228
▁confisqué	-12.0228
▁coréen	-12.0228
▁facult	-12.0228
▁manuel	-12.0228
▁précieux	-12.0228
▁rationnel	-12.0228
▁souvins	-12.0228
▁titularisé	-12.0228
▁tolère	-12.0228
▁tressaille	-12.0228
▁Souffle	-12.0228
▁immortel	-12.0228
▁tiendron	-12.0228
▁tocard	-12.0228
▁flamme	-12.0228
icult	-12.0228
▁Dégote	-12.0228
▁choyé	-12.0228
▁immunisé	-12.0228
▁éternel	-12.0228
▁Bravo	-12.0228
▁Recrute	-12.0228
▁Roule	-12.0228
▁fiévreu	-12.0228
▁amendé	-12.0228
▁avarié	-12.0228
▁grincheu	-12.0228
▁inspect	-12.0228
▁postale	-12.0228
▁Relis	-12.0228
▁flotte	-12.0228
▁massacr	-12.0228
▁toffense	-12.0228
▁rédig	-12.0228
▁personnalité	-12.0228
▁plaquer	-12.0228
▁Souvenezvous	-12.0228
▁bref	-12.0228
▁opération	-12.0228
▁Débranche	-12.0228
▁corbeau	-12.0228
▁fiança	-12.0228
▁Crache	-12.0228
▁complot	-12.0228
▁intimidé	-12.0228
▁menaça	-12.0228
▁suivrons	-12.0228
▁viendrez	-12.0228
▁papillon	-12.0228
▁menfui	-12.0228
▁Stop	-12.0228
▁immoral	-12.0228
▁impost	-12.0228
▁ronge	-12.0228
▁cinquantaine	-12.0228
▁réécrit	-12.0228
▁gèle	-12.0228
▁senvol	-12.0228
interr	-12.0228
▁Répare	-12.0228
▁comporté	-12.0228
▁gastronom	-12.0228
▁iP	-12.0228
▁pince	-12.0228
▁cousue	-12.0228
allo	-12.0228
vulg	-12.0228
▁sirènes	-12.0228
▁épat	-12.0228
▁lumineu	-12.0228
▁milli	-12.0228
▁Dessine	-12.0228
▁raccroché	-12.0228
▁embrouillé	-12.0228
▁exception	-12.0228
▁méticuleu	-12.0228
▁Formidable	-12.0228
▁profiter	-12.0228
▁cinquant	-12.0228
▁réchappa	-12.0228
▁Mord	-12.0228
▁oublia	-12.0228
▁avalé	-12.0228
▁radote	-12.0228
▁Agrandis	-12.0228
▁Demeure	-12.0228
▁Grouille	-12.0228
▁ligot	-12.0228
▁Nobéis	-12.0228
▁couloir	-12.0228
▁débarrassai	-12.0228
▁sugg	-12.0228
▁Mespionn	-12.0228
▁bern	-12.0229
▁réclam	-12.0229
▁cata	-12.0229
▁Refaisonsl	-12.0229
▁sirot	-12.0229
▁réchauff	-12.0229
▁entretînmes	-12.0229
▁aspir	-12.0229
▁outré	-12.0229
▁toublier	-12.0229
▁hyper	-12.0229
▁délaissé	-12.0229
▁câ	-12.0229
▁raccrocha	-12.0229
▁photograph	-12.0229
abond	-12.0229
hyp	-12.0229
▁Rebon	-12.0229
▁Frappe	-12.0229
▁Payer	-12.0229
▁culture	-12.0229
▁présence	-12.0229
▁Diable	-12.0229
ompris	-12.0229
▁Tâche	-12.0229
illumin	-12.0229
▁délira	-12.0229
▁déroulentelles	-12.0229
caution	-12.0229
▁boulangerie	-12.0229
▁Demandezleur	-12.0229
▁intimide	-12.0229
▁attendrons	-12.0229
▁achat	-12.0229
▁disqualifié	-12.0229
▁vieillis	-12.0229
▁Tentons	-12.0229
▁vibre	-12.0229
▁cardi	-12.0229
▁linge	-12.023
▁gâchis	-12.023
▁signifiait	-12.023
▁perç	-12.023
▁expir	-12.023
▁séd	-12.023
▁ruine	-12.023
étreign	-12.023
▁pèle	-12.023
▁Jexpliquerai	-12.023
▁trans	-12.023
▁Lâ	-12.023
▁sélecti	-12.023
▁Jobtien	-12.023
▁redout	-12.023
▁poumon	-12.023
autorisation	-12.023
▁ramené	-12.023
▁corne	-12.023
▁Surfe	-12.023
▁escroqu	-12.023
▁Remplacezl	-12.023
▁dévoil	-12.023
▁faudra	-12.023
▁espèce	-12.0231
▁veuve	-12.0231
▁Reposezvous	-12.0231
▁insol	-12.0231
▁boulanger	-12.0231
flu	-12.0231
▁Nallume	-12.0231
▁chamaill	-12.0231
▁Viennent	-12.0231
▁principal	-12.0231
verser	-12.0231
▁château	-12.0231
▁venait	-12.0231
▁charme	-12.0231
▁ko	-12.0231
▁légère	-12.0231
▁osestu	-12.0231
▁péché	-12.0231
▁sauveteur	-12.0231
▁dépense	-12.0231
▁Jarrêterai	-12.0231
antiqu	-12.0231
▁participation	-12.0231
▁judicieusement	-12.0232
tagi	-12.0232
douz	-12.0232
▁perdîmes	-12.0232
▁nettoie	-12.0232
oure	-12.0232
▁procure	-12.0232
baucher	-12.0232
▁donnèrent	-12.0232
ital	-12.0232
▁boivent	-12.0232
▁ladolescent	-12.0232
▁Agenouille	-12.0232
nform	-12.0232
approuverait	-12.0232
▁lexpert	-12.0232
▁emmène	-12.0232
▁mourras	-12.0232
isonné	-12.0232
▁larguer	-12.0233
▁rompre	-12.0233
▁buisson	-12.0233
▁serine	-12.0233
▁suivis	-12.0233
▁Grandis	-12.0233
▁convenable	-12.0233
ressetoi	-12.0233
▁sévanouir	-12.0233
▁écoutons	-12.0233
▁agent	-12.0233
▁installezvous	-12.0233
▁Rép	-12.0233
▁version	-12.0234
▁sexprime	-12.0234
▁hauss	-12.0234
▁sendor	-12.0234
▁prime	-12.0234
▁scié	-12.0234
▁conseillé	-12.0234
▁remplace	-12.0234
▁rêvass	-12.0235
▁nagé	-12.0235
lume	-12.0235
▁Inspirez	-12.0235
▁Ajoutez	-12.0235
▁céré	-12.0235
dote	-12.0235
▁allié	-12.0235
▁dragueuse	-12.0235
▁mouche	-12.0235
▁déchargé	-12.0236
▁brutal	-12.0236
▁lécrire	-12.0236
▁dexplication	-12.0236
▁Cours	-12.0236
▁dapprendre	-12.0236
▁dœufs	-12.0236
ckets	-12.0236
▁sollicité	-12.0236
▁Risque	-12.0236
▁motif	-12.0236
▁Vêt	-12.0237
▁chev	-12.0237
▁Enregistre	-12.0237
▁claqu	-12.0237
▁croissent	-12.0237
▁chantaient	-12.0237
▁Partonsnous	-12.0238
▁bel	-12.0238
▁vé	-12.0238
▁ava	-12.0238
▁Quinsinue	-12.0238
▁loffens	-12.0238
▁Lave	-12.0238
▁insulté	-12.0238
▁Cherchele	-12.0239
▁provision	-12.0239
oral	-12.0239
▁Press	-12.0239
noc	-12.0239
▁lautomne	-12.024
▁minterromp	-12.024
▁coureur	-12.024
ling	-12.024
rangée	-12.024
▁fouineu	-12.024
▁Gar	-12.0241
▁mappela	-12.0241
monie	-12.0241
▁Fumezvous	-12.0241
hète	-12.0241
meuble	-12.0241
▁maitre	-12.0241
liquez	-12.0242
▁jardinier	-12.0242
urop	-12.0242
▁orch	-12.0242
▁sagesse	-12.0242
▁Lancezl	-12.0243
▁souvenezvous	-12.0243
▁regrett	-12.0243
▁remit	-12.0243
▁téléphonai	-12.0244
▁maligne	-12.0244
▁souvenez	-12.0244
▁battrai	-12.0244
▁cède	-12.0244
▁pauvreté	-12.0244
▁Maccompagner	-12.0245
hée	-12.0245
over	-12.0245
onopol	-12.0245
▁dapp	-12.0245
▁Existe	-12.0245
▁clos	-12.0246
laborat	-12.0246
▁amusezvous	-12.0247
▁Remetsle	-12.0247
▁dessiner	-12.0247
▁arrêtons	-12.0247
▁mennuyez	-12.0247
▁Courez	-12.0248
flez	-12.0248
▁cogner	-12.0248
▁camper	-12.0248
▁Ninterromp	-12.0248
▁moyenne	-12.0248
▁brosse	-12.0249
▁bronze	-12.0249
▁Rappelezmoi	-12.0249
▁Nutilise	-12.0249
▁rassi	-12.0249
amou	-12.025
▁chut	-12.025
▁marchand	-12.025
▁chaleur	-12.025
▁achetons	-12.025
▁rare	-12.025
▁semé	-12.0251
▁souvrit	-12.0251
▁fêlé	-12.0251
▁grogné	-12.0251
▁chopé	-12.0252
▁Japprendrai	-12.0252
▁lachèterai	-12.0252
▁restons	-12.0252
▁élo	-12.0253
▁déf	-12.0253
miner	-12.0253
iseaux	-12.0254
pelé	-12.0254
▁Ignorele	-12.0254
oleil	-12.0254
dition	-12.0254
▁relax	-12.0255
▁limportance	-12.0255
▁plia	-12.0255
▁amusez	-12.0255
▁Étudiez	-12.0256
▁Jarrête	-12.0256
▁insisté	-12.0256
▁créa	-12.0256
▁lembrassa	-12.0257
▁tireur	-12.0257
tesque	-12.0258
▁songerai	-12.0259
▁réit	-12.026
▁Poste	-12.026
▁spécialisé	-12.026
▁Donnezles	-12.026
▁Filez	-12.026
▁sinquiéter	-12.026
▁audacieu	-12.026
▁potes	-12.0261
▁assure	-12.0261
▁naura	-12.0261
▁crochet	-12.0262
otique	-12.0263
▁inform	-12.0263
▁capturé	-12.0263
▁kara	-12.0264
▁soufflai	-12.0264
ket	-12.0264
▁dénergie	-12.0265
▁Bou	-12.0266
▁Dor	-12.0267
aimiez	-12.0267
oli	-12.0268
▁voyages	-12.0268
▁encre	-12.0269
nère	-12.0269
▁lécoute	-12.0269
▁confi	-12.0269
▁mortel	-12.0269
▁réelle	-12.0269
▁Jéprouvai	-12.027
▁machin	-12.0271
▁progress	-12.0271
tume	-12.0271
▁sagissaitil	-12.0272
gieux	-12.0272
▁nonante	-12.0273
▁lèverai	-12.0274
▁tourte	-12.0274
▁bouffé	-12.0276
▁Répondezmoi	-12.0277
▁install	-12.0277
ortablement	-12.0277
▁neigera	-12.0277
▁trouvaitil	-12.0278
charpe	-12.0278
▁fortune	-12.0278
▁modifié	-12.0279
▁dégagé	-12.0279
influence	-12.0279
▁déchaîné	-12.028
yot	-12.028
piter	-12.0281
▁fréquen	-12.0282
▁verbalisé	-12.0283
▁officiel	-12.0283
▁reconnais	-12.0283
▁poigne	-12.0283
▁Jettele	-12.0283
▁remette	-12.0284
▁parvenir	-12.0284
▁inclinée	-12.0285
▁vêtue	-12.0285
▁obtiendra	-12.0286
▁suivante	-12.0286
▁humaine	-12.0287
▁passion	-12.029
▁Fumestu	-12.0291
érail	-12.0292
▁tins	-12.0292
Es	-12.0292
▁Augmentez	-12.0292
▁tailleur	-12.0293
▁poussent	-12.0294
ouff	-12.0295
▁Proc	-12.0295
▁anti	-12.0295
▁lig	-12.0296
ostal	-12.0297
btiens	-12.0297
▁cage	-12.0297
fur	-12.0297
▁fautif	-12.0298
illon	-12.0298
▁assu	-12.0299
▁born	-12.03
▁renonc	-12.03
▁maltraité	-12.0301
▁étudietil	-12.0301
▁Distribuez	-12.0302
▁varie	-12.0303
▁bienveillante	-12.0303
▁abus	-12.0304
rif	-12.0305
▁centre	-12.0306
▁employer	-12.0306
▁disputée	-12.0306
▁brûlent	-12.0307
▁déménage	-12.0307
▁gagneur	-12.0308
▁Maimestu	-12.0308
uste	-12.031
ahu	-12.0312
▁vérifie	-12.0317
▁naccepterai	-12.0317
rappe	-12.0318
▁Déjeuner	-12.0322
▁fascinée	-12.0322
▁élé	-12.0324
▁présenta	-12.0325
scal	-12.0328
▁vivez	-12.0328
▁Coupele	-12.0328
▁Saint	-12.0329
nregistr	-12.0329
▁Gardezle	-12.033
▁crierai	-12.0331
▁gronder	-12.0332
▁Écrismoi	-12.0333
écrivez	-12.0333
▁jessaie	-12.0335
▁exprim	-12.0335
▁serace	-12.0336
▁épuis	-12.0336
▁raccompagné	-12.0337
▁inf	-12.0338
▁tévoque	-12.0338
▁nirai	-12.0339
chin	-12.0341
conditionnel	-12.0344
▁Suisle	-12.0345
▁taccompagner	-12.0346
onnel	-12.0347
▁anxieuse	-12.0347
rdu	-12.0349
▁Suivezle	-12.0349
▁deviner	-12.0352
▁dérangetil	-12.0352
▁charge	-12.0352
▁maï	-12.0353
aou	-12.0357
▁insérer	-12.0358
▁aimions	-12.0359
▁initié	-12.0359
▁instinct	-12.0359
▁effraie	-12.0359
▁introdui	-12.0359
abrer	-12.0364
▁regrettera	-12.0366
▁développé	-12.0366
▁excite	-12.0367
▁contacter	-12.0368
▁retournée	-12.0369
▁grondé	-12.0369
▁conduisez	-12.037
ouc	-12.0372
▁ron	-12.0373
▁gratt	-12.0379
▁tenvie	-12.0382
▁indéc	-12.0384
▁trichez	-12.0385
▁lub	-12.0385
▁Autre	-12.0387
▁Paie	-12.0387
▁tro	-12.0388
iant	-12.0388
▁obéira	-12.039
▁téléphonerai	-12.0391
riété	-12.0392
pteur	-12.0392
▁flatt	-12.0393
umé	-12.0393
▁Mangeons	-12.0395
▁restetil	-12.0395
gnant	-12.0397
▁trempée	-12.04
ièce	-12.0401
▁guérir	-12.0403
urant	-12.0405
▁compté	-12.0411
▁trompez	-12.0412
▁cherché	-12.0413
▁grandisse	-12.0415
▁pardonnera	-12.0416
rland	-12.042
▁agr	-12.0422
▁dérobe	-12.0427
▁prêtera	-12.043
▁compri	-12.0434
▁assiettes	-12.0435
▁dévouée	-12.0437
▁engourdie	-12.0437
▁obtien	-12.0438
▁canards	-12.0439
▁ronde	-12.0439
▁enterre	-12.044
néan	-12.0443
▁changerai	-12.0446
▁mine	-12.0449
▁Cite	-12.0449
▁révolt	-12.045
▁signer	-12.0452
▁stressé	-12.0455
oubl	-12.0455
▁émotion	-12.0456
▁habitu	-12.0458
ines	-12.0462
▁éclairci	-12.0464
▁supplié	-12.0471
▁bibi	-12.0471
▁attaquer	-12.0472
tivement	-12.0474
âc	-12.0477
▁Apportele	-12.0481
▁puérile	-12.0481
▁niais	-12.0481
▁comm	-12.049
▁continuez	-12.0491
▁divis	-12.05
ampagne	-12.0502
▁manteaux	-12.0506
▁relié	-12.0511
▁ab	-12.0515
rassa	-12.0519
▁mordue	-12.0522
▁bond	-12.0524
attirent	-12.0533
quetil	-12.054
▁recon	-12.0542
▁coiffé	-12.0548
▁soupçonné	-12.055
▁plaint	-12.0553
▁nexprim	-12.0553
limentation	-12.0554
▁refait	-12.0556
▁moublie	-12.0557
▁croistu	-12.0559
aigre	-12.056
da	-12.0563
▁avertisse	-12.0576
▁respectai	-12.0578
▁retraitée	-12.0578
▁gavée	-12.0578
▁rendons	-12.0579
▁opposée	-12.0579
▁agacée	-12.0579
▁ignore	-12.0581
ezle	-12.0582
▁ham	-12.0583
▁couchée	-12.0583
inent	-12.0586
▁empire	-12.0589
▁éternue	-12.0591
▁entraîne	-12.0592
▁bénit	-12.0594
▁Valent	-12.0596
encouragea	-12.0598
▁libéré	-12.0601
▁commençai	-12.0607
gagnez	-12.0615
▁contrai	-12.0624
écrasa	-12.0626
▁massoi	-12.0627
▁bali	-12.0629
▁risquer	-12.0637
▁exp	-12.0637
▁odieu	-12.0639
▁commencerai	-12.0641
▁charrie	-12.0652
▁commencez	-12.0656
▁origina	-12.0656
▁tirera	-12.0664
▁lenseignerai	-12.0669
sensible	-12.067
▁finira	-12.0674
▁épic	-12.0674
tenan	-12.0705
▁pois	-12.0716
rdi	-12.0716
▁têtue	-12.0723
▁admir	-12.0727
▁débrouillée	-12.0728
▁frustrée	-12.0729
▁explosi	-12.0731
▁gagnerons	-12.0734
▁promette	-12.074
irai	-12.0746
el	-12.0748
▁ph	-12.0762
▁prendstu	-12.0769
cier	-12.0777
nsable	-12.0781
▁habitestu	-12.0783
▁tarrêter	-12.0789
pil	-12.0789
▁Payez	-12.0793
igeratil	-12.0794
▁étaitelle	-12.0795
▁Donnela	-12.0796
sionné	-12.0797
▁dramatise	-12.0803
▁essayerons	-12.0807
▁téléchargé	-12.0809
▁copains	-12.0815
▁repousse	-12.0819
▁lavertiss	-12.0827
▁remet	-12.0835
motion	-12.0839
arde	-12.0842
mis	-12.0844
tables	-12.0845
sezle	-12.0862
▁laurai	-12.0863
▁lint	-12.0875
▁écoles	-12.0878
▁soulagée	-12.0882
▁calmée	-12.0884
▁tolér	-12.0895
▁reconnaissez	-12.091
▁débord	-12.0911
endicit	-12.0911
▁venezvous	-12.0934
▁vienstu	-12.0962
▁sauvegard	-12.0966
démi	-12.0968
▁durer	-12.099
▁coquill	-12.099
veillez	-12.0996
▁jé	-12.1005
▁sentil	-12.1009
▁avertis	-12.1009
▁abandonne	-12.1028
▁tarder	-12.1028
▁réna	-12.1029
▁publicit	-12.1029
▁lag	-12.1034
▁Enl	-12.1041
▁sidérée	-12.1043
▁ignorée	-12.1044
▁plier	-12.1046
▁routi	-12.1047
▁témoigner	-12.1053
clam	-12.1053
▁mangerons	-12.1068
▁irré	-12.1083
▁travaillezvous	-12.1085
ités	-12.1093
▁tueur	-12.1103
▁évoque	-12.1107
lacée	-12.1111
somme	-12.1114
ageuse	-12.1119
▁gâch	-12.1128
tio	-12.114
▁Serai	-12.115
▁filet	-12.116
acry	-12.1162
▁parlezvous	-12.1174
avantage	-12.1174
▁battent	-12.1182
utiliser	-12.1185
▁Débarrass	-12.1188
ezen	-12.1194
quer	-12.1196
▁affamée	-12.1213
▁éloignée	-12.1213
ole	-12.1215
fumeur	-12.1224
▁marrés	-12.1228
ayons	-12.1229
pte	-12.1235
▁marrées	-12.1242
▁Apportezle	-12.1242
▁Laissela	-12.1249
▁crayons	-12.1254
terie	-12.1268
▁étroits	-12.1282
▁aim	-12.1288
▁Évitezl	-12.1293
▁Rendezle	-12.1297
échauff	-12.1298
▁Regardezmoi	-12.1309
▁Lisle	-12.1329
▁bonn	-12.133
èse	-12.1339
▁Rendsle	-12.1342
▁sattendaient	-12.1348
▁Remplacel	-12.1349
rages	-12.1352
retelle	-12.136
▁sache	-12.1363
appellestu	-12.1364
▁écri	-12.1368
▁cré	-12.1371
▁Évitel	-12.1373
ntretenir	-12.1374
▁trent	-12.1382
▁Italie	-12.1383
▁approuve	-12.1387
▁linvit	-12.1408
ules	-12.1411
ccu	-12.1417
éré	-12.1423
urs	-12.1425
to	-12.1426
▁am	-12.1428
udit	-12.1434
▁fia	-12.1435
▁duré	-12.1456
▁conduir	-12.1465
orateur	-12.1469
▁tirées	-12.1487
▁croisé	-12.1498
ré	-12.1527
▁golfeu	-12.1533
▁Taillons	-12.1548
ssa	-12.1557
▁offense	-12.1575
▁Ressaisis	-12.1576
▁Ou	-12.1578
aute	-12.1579
▁hurle	-12.158
▁raccompagn	-12.1582
nie	-12.1583
nne	-12.1591
▁hom	-12.1599
▁lettres	-12.1604
▁lâch	-12.1613
mer	-12.1619
▁arrêtera	-12.1626
flexi	-12.163
▁proc	-12.1638
▁tigres	-12.1643
▁portezvous	-12.1665
▁répares	-12.1678
▁conc	-12.1678
venture	-12.1683
▁essayes	-12.1686
▁revien	-12.1693
cin	-12.1695
▁monta	-12.1712
▁plantées	-12.172
aujourdhui	-12.1732
▁licenciée	-12.1769
▁menvoy	-12.1773
aube	-12.1775
avi	-12.1793
▁ven	-12.1814
▁Sy	-12.182
aie	-12.1852
▁fonctionna	-12.1858
▁cite	-12.1861
▁travailla	-12.1865
ic	-12.1879
avion	-12.188
ssant	-12.1892
inspira	-12.1903
▁Juge	-12.1922
ntraînement	-12.1924
▁économis	-12.196
▁loublie	-12.1967
naître	-12.2019
▁déplace	-12.2027
▁verrouill	-12.2035
▁fris	-12.206
▁mordi	-12.2062
▁spéciale	-12.2075
ttendez	-12.2078
▁quo	-12.2091
ale	-12.2131
▁norm	-12.2172
auteur	-12.2179
▁glac	-12.2194
▁Nag	-12.2206
▁pensée	-12.2207
rifié	-12.2212
▁fixe	-12.222
▁courtes	-12.2226
▁Taill	-12.2241
▁revenues	-12.2267
accorde	-12.2269
▁achetée	-12.2273
gner	-12.2283
▁remarquer	-12.2296
▁simule	-12.2304
▁nécout	-12.2312
équipage	-12.2375
vaincrons	-12.2377
▁révéla	-12.2377
illes	-12.2399
▁flaire	-12.2438
▁maides	-12.2454
▁néchouer	-12.2463
raction	-12.2464
▁nappart	-12.2478
▁Accordez	-12.2551
visage	-12.2558
▁pensions	-12.2563
▁apprends	-12.2564
▁riez	-12.2567
▁traîtres	-12.2578
▁dramati	-12.2592
▁tr	-12.2619
erai	-12.2663
appréciestu	-12.2709
▁Lapprécierai	-12.271
▁dar	-12.2718
▁vole	-12.2727
▁prévien	-12.2732
attendra	-12.2738
bordé	-12.2743
lets	-12.2755
▁Rés	-12.278
raitil	-12.2797
▁gâte	-12.2849
putation	-12.2866
▁creus	-12.2875
rez	-12.288
▁lut	-12.2914
mé	-12.2975
si	-12.2983
▁chauves	-12.2991
pense	-12.2999
▁Vivr	-12.3002
mportez	-12.3028
rde	-12.3037
▁miracles	-12.3049
abandonnerai	-12.3058
▁ca	-12.3064
pporter	-12.3097
lot	-12.3107
▁analys	-12.3133
nèrent	-12.3145
argent	-12.3163
▁menton	-12.3164
▁confectionne	-12.3194
▁parlestu	-12.3256
▁Res	-12.3266
▁supprime	-12.3294
vée	-12.3318
▁réagis	-12.333
etun	-12.3336
appellerai	-12.3346
▁Appellez	-12.3346
▁linsulte	-12.3353
▁Sav	-12.3356
▁Démarre	-12.3368
▁jubile	-12.3372
érer	-12.3384
▁Posezl	-12.341
dat	-12.3424
tirait	-12.3433
▁traversai	-12.348
harité	-12.3502
amb	-12.3508
▁Goûtezl	-12.3522
▁Cherchezl	-12.3535
▁tirés	-12.3545
adapt	-12.3552
▁effa	-12.3573
invent	-12.3584
▁plantés	-12.3609
▁attrapa	-12.361
aimestu	-12.3645
▁intimi	-12.3673
▁Inter	-12.3725
▁suicide	-12.3758
joign	-12.377
bi	-12.3776
▁conseiller	-12.378
rant	-12.3783
▁bébés	-12.3811
▁chouettes	-12.3822
▁débit	-12.3849
ten	-12.3849
ibère	-12.3861
vérifie	-12.3876
ontre	-12.3898
util	-12.3911
▁méchapp	-12.3915
▁Goûtel	-12.3924
▁linve	-12.3926
▁console	-12.3984
blie	-12.3995
▁conn	-12.4017
rud	-12.4029
▁Cire	-12.4048
▁pétr	-12.4062
mb	-12.4067
aurons	-12.4173
▁batte	-12.4187
▁ramène	-12.4203
ick	-12.4227
▁séchapp	-12.4242
étions	-12.4245
iens	-12.4256
▁recule	-12.4311
oyezvous	-12.4315
primant	-12.4319
▁Montrezm	-12.434
▁arriverai	-12.4358
▁Men	-12.439
▁petites	-12.44
▁larrête	-12.44
ignore	-12.4407
▁aid	-12.4419
▁basses	-12.4442
vie	-12.4456
liez	-12.4466
▁Attaque	-12.4467
voy	-12.4486
▁surchargé	-12.4526
▁précipite	-12.4529
▁restera	-12.4566
▁existent	-12.4588
▁existe	-12.4627
▁migno	-12.4628
abi	-12.4644
adapte	-12.4667
éché	-12.467
▁imita	-12.4672
▁tickets	-12.4676
ute	-12.4679
▁poulets	-12.4682
ignorer	-12.4682
▁Asi	-12.4689
▁correspondan	-12.469
▁surfeu	-12.4704
▁convien	-12.4727
▁dutilis	-12.4759
▁latta	-12.4812
prendre	-12.484
imeraistu	-12.4846
▁lé	-12.4853
▁Débarrassez	-12.486
▁jubil	-12.4862
▁Démarr	-12.4867
mpêcher	-12.4874
▁fixa	-12.4905
▁linsult	-12.4934
▁supprim	-12.4952
▁dramat	-12.4955
ccorde	-12.496
ction	-12.4969
▁flippe	-12.4978
ains	-12.4982
éclairci	-12.4997
▁rejoindra	-12.5006
itable	-12.5024
▁râl	-12.5043
▁vanné	-12.5118
sprit	-12.512
zut	-12.5136
pétit	-12.5179
▁attenti	-12.5185
▁colli	-12.5198
royezvous	-12.5198
mes	-12.525
▁répa	-12.5294
▁mentirait	-12.5297
▁analyse	-12.5302
▁dise	-12.5344
ifié	-12.5358
▁mattaque	-12.5371
toire	-12.5386
der	-12.5398
ex	-12.5399
istance	-12.5421
▁dragu	-12.5427
▁bris	-12.5452
▁Penses	-12.5491
ssait	-12.5521
▁gra	-12.5569
viter	-12.559
▁viva	-12.5597
▁lenfan	-12.5604
▁Réso	-12.5607
▁blâme	-12.5609
▁connus	-12.562
▁loubli	-12.563
▁fend	-12.5672
▁contenté	-12.5705
allezvous	-12.5708
épaiss	-12.5722
rmée	-12.5785
▁brillent	-12.579
lique	-12.5814
hait	-12.5859
viendrai	-12.5863
▁capables	-12.5885
▁poursuiv	-12.592
amas	-12.593
▁Di	-12.5972
ga	-12.5987
▁peign	-12.6011
aimeriez	-12.6019
él	-12.6028
▁sui	-12.6042
ulaire	-12.6047
▁bes	-12.6051
▁déshabill	-12.6074
▁flair	-12.6075
ro	-12.6095
▁connaissiez	-12.6118
fes	-12.6131
pprécieraistu	-12.6134
▁gât	-12.6145
▁distra	-12.6149
nière	-12.6156
▁moui	-12.6192
▁coud	-12.6209
▁simul	-12.6243
nti	-12.6285
▁constitu	-12.6294
▁sex	-12.6311
ceuse	-12.632
▁plante	-12.6348
ministr	-12.6372
ath	-12.6413
▁sass	-12.6441
▁remarquera	-12.6448
tentez	-12.6449
▁exc	-12.6461
▁Per	-12.6481
▁abaiss	-12.6496
▁verrouilla	-12.6513
▁durera	-12.6533
▁rapproche	-12.6547
attraper	-12.6565
▁déplac	-12.661
ugez	-12.6613
agas	-12.6626
aventure	-12.6673
échouerons	-12.6742
▁narriva	-12.6745
iront	-12.6789
▁protesta	-12.6802
▁attire	-12.6813
imeriezvous	-12.6825
▁ris	-12.6827
posée	-12.6833
dit	-12.6881
▁Danse	-12.6885
éta	-12.6887
▁perde	-12.6969
▁freine	-12.7002
ime	-12.7008
▁éclat	-12.7033
ises	-12.7039
▁convainc	-12.7106
uffer	-12.7126
usées	-12.7141
défini	-12.7142
ortuga	-12.7146
uper	-12.7164
▁envoy	-12.7176
▁Sauvez	-12.7181
▁Lancel	-12.7207
▁consola	-12.7235
▁jav	-12.7276
crit	-12.7279
▁saignes	-12.7317
sses	-12.7317
▁Go	-12.7321
entraînement	-12.7324
▁Prêt	-12.7333
▁grill	-12.7363
▁Compar	-12.7391
cuser	-12.7414
▁tappellera	-12.7423
▁off	-12.7429
▁sap	-12.7436
saisissezvous	-12.7451
▁passa	-12.7457
▁clairs	-12.7476
arrêter	-12.7494
des	-12.7502
▁louvre	-12.7512
▁trouviez	-12.7516
▁man	-12.753
rit	-12.7532
▁fourr	-12.7564
iller	-12.7564
gé	-12.763
▁Lorat	-12.7631
▁vieill	-12.7652
▁mépris	-12.7654
▁sattend	-12.7656
▁Poussez	-12.766
▁Touille	-12.7664
ulte	-12.7666
réaliste	-12.7679
ronique	-12.7695
▁Bougez	-12.7699
▁démarr	-12.77
▁narrêt	-12.7703
▁lép	-12.772
▁Évite	-12.7738
ttaquez	-12.7755
ngager	-12.7767
▁Embrass	-12.778
▁manifest	-12.7783
▁Remplace	-12.7796
▁magne	-12.7799
taque	-12.7808
ession	-12.7845
▁décid	-12.787
▁Évitez	-12.7935
▁arrach	-12.7953
▁haïss	-12.7969
dieux	-12.797
▁tignore	-12.7977
▁confectionn	-12.7983
▁mignonnes	-12.8003
▁da	-12.8015
échappa	-12.8018
▁compa	-12.8025
isée	-12.803
estion	-12.8052
bull	-12.8076
gnit	-12.8138
▁répond	-12.8152
his	-12.8223
▁démissionn	-12.8255
▁flanche	-12.826
▁racont	-12.8267
oute	-12.8282
▁val	-12.8284
▁Port	-12.8308
▁surviv	-12.831
▁dirig	-12.8311
nal	-12.8312
▁embrass	-12.8314
▁débute	-12.8315
▁méd	-12.8324
▁trompa	-12.8331
▁texcuse	-12.8343
▁témoigne	-12.8369
▁rég	-12.8406
▁acco	-12.8415
bé	-12.8417
▁Convain	-12.8423
▁Bo	-12.8434
▁plie	-12.8462
▁ramp	-12.8484
avertisse	-12.8491
▁brûl	-12.8494
▁pâ	-12.8513
▁rec	-12.8524
▁halet	-12.853
▁réalisa	-12.8532
▁naima	-12.8532
▁insens	-12.8537
▁lamb	-12.8549
▁Approchez	-12.8554
▁sembla	-12.8576
▁acqui	-12.859
▁existen	-12.8595
▁fr	-12.8597
▁inter	-12.8599
▁trahir	-12.8606
▁magn	-12.8621
▁rencontr	-12.8624
▁commenç	-12.8634
▁admi	-12.8643
▁rappelez	-12.8651
▁insult	-12.8655
br	-12.8685
▁tolére	-12.8691
▁cultiv	-12.8704
▁devra	-12.8712
épouser	-12.8722
rg	-12.8722
▁mamus	-12.876
▁véritables	-12.8766
fs	-12.8768
▁renversa	-12.8772
origin	-12.8772
apte	-12.8792
io	-12.8793
enflamm	-12.8808
visé	-12.8821
viendront	-12.8842
▁surviendra	-12.8844
poser	-12.8849
▁explos	-12.8851
▁Rep	-12.8851
venues	-12.8857
▁amus	-12.8861
irait	-12.8865
▁March	-12.8868
ami	-12.8881
tenu	-12.8883
qu	-12.8883
▁suff	-12.8891
▁Trouv	-12.8909
▁parlera	-12.8911
charge	-12.8942
quillage	-12.8943
ug	-12.8945
▁Bra	-12.8955
▁tadmir	-12.8956
▁loti	-12.8981
arrachera	-12.8984
inq	-12.8991
▁revenus	-12.9004
▁mentit	-12.905
▁déjeun	-12.9054
▁Jouez	-12.9055
ma	-12.9058
▁pl	-12.9065
▁habitue	-12.9066
▁lâcha	-12.9075
ntrerai	-12.9093
venus	-12.9094
▁tarrêtera	-12.9106
▁dirigez	-12.9112
engager	-12.9117
▁négocie	-12.912
quette	-12.9122
▁levés	-12.913
oussé	-12.913
▁tattend	-12.9131
aperçus	-12.9131
imentaire	-12.9154
exprime	-12.9175
bjectif	-12.9177
auraitil	-12.9186
bus	-12.9186
▁surveille	-12.919
icité	-12.9194
▁pé	-12.9203
faites	-12.9203
▁résistez	-12.9207
▁mador	-12.9208
▁Quétait	-12.9212
▁rigola	-12.9227
▁écras	-12.9233
am	-12.9239
oui	-12.9244
olice	-12.9259
▁ennuyez	-12.9283
▁frappe	-12.9295
▁gob	-12.9302
▁tac	-12.9312
▁lava	-12.9316
tirez	-12.9327
ium	-12.933
▁tappréci	-12.9332
▁encourage	-12.9338
mords	-12.9342
E	-12.9351
édez	-12.936
entretenir	-12.9365
▁tattraper	-12.9376
▁apport	-12.938
▁couch	-12.9383
up	-12.9387
écha	-12.9388
celle	-12.9392
rateur	-12.9392
▁indé	-12.9394
rme	-12.9399
▁cass	-12.9402
mettons	-12.9406
▁asseyez	-12.942
breuse	-12.9437
arge	-12.9438
ouvr	-12.945
▁moccupe	-12.9455
igné	-12.9476
▁Jabandonne	-12.9487
èle	-12.9504
considér	-12.9515
impôt	-12.9516
rainstu	-12.9537
▁Pig	-12.9554
â	-12.9559
cal	-12.9567
▁Léta	-12.957
▁repouss	-12.9575
▁séjourne	-12.9576
ssaye	-12.9586
blant	-12.9593
▁Viendr	-12.9597
écrir	-12.9599
▁puéril	-12.9608
▁Fini	-12.9608
gence	-12.9612
drai	-12.9614
▁paraîtr	-12.9615
ève	-12.9616
xim	-12.962
liées	-12.9622
espace	-12.9635
▁construi	-12.9641
lement	-12.9641
▁tria	-12.9645
▁répondi	-12.9647
▁divi	-12.9652
cré	-12.9655
veux	-12.9657
▁compl	-12.9657
▁forc	-12.9658
prouve	-12.9663
▁hât	-12.9663
▁inv	-12.9663
assetoi	-12.9666
uvent	-12.9671
▁avi	-12.9672
inistre	-12.9675
don	-12.9676
▁partent	-12.9679
▁révol	-12.968
rê	-12.9681
▁préoccup	-12.9683
▁lunivers	-12.9684
▁jurez	-12.9689
idé	-12.9696
▁Agi	-12.9705
▁lessay	-12.9708
eci	-12.9712
▁donnez	-12.9712
vientil	-12.9714
cabre	-12.9714
▁nécoutez	-12.9722
▁canard	-12.9722
mploi	-12.9723
▁maquill	-12.9727
▁écout	-12.9738
▁Comm	-12.974
fois	-12.9742
▁calm	-12.9743
▁général	-12.9745
▁saut	-12.9746
▁coute	-12.9747
▁blagu	-12.9756
▁diamant	-12.9757
▁insecte	-12.9757
explique	-12.9762
▁flip	-12.9764
quête	-12.9767
lo	-12.9769
ître	-12.977
âche	-12.9771
contrôl	-12.9771
oppos	-12.9773
rempla	-12.9776
▁hi	-12.9777
œur	-12.9782
▁revienne	-12.9785
èce	-12.9788
emprunte	-12.9792
assiette	-12.9801
ograph	-12.9804
▁mouton	-12.981
▁Condui	-12.9814
▁bagage	-12.9815
hors	-12.9817
▁oreille	-12.9818
▁toff	-12.9819
serve	-12.982
▁naidez	-12.982
É	-12.9821
indé	-12.9821
▁menseigne	-12.9822
▁Levezvous	-12.9826
▁hér	-12.9826
▁Agis	-12.9826
▁bagu	-12.9827
rtic	-12.9829
himi	-12.9832
venez	-12.9848
▁lannu	-12.9851
all	-12.9853
échappe	-12.9856
auter	-12.9857
paraît	-12.986
aisser	-12.9864
solu	-12.9874
admira	-12.9875
▁héroï	-12.9875
▁manqu	-12.9878
▁lembrasse	-12.9878
vide	-12.9884
excite	-12.9884
▁ferez	-12.9885
▁pren	-12.9886
ennuie	-12.9889
insiste	-12.9891
effectu	-12.9893
tendu	-12.9896
▁pleurent	-12.9897
mérique	-12.9898
Inter	-12.9898
introdui	-12.99
instinct	-12.9901
initié	-12.9901
effraie	-12.9901
uismoi	-12.9903
▁habituera	-12.9906
ours	-12.9908
rôle	-12.9912
▁tarrive	-12.9913
habit	-12.9917
aimions	-12.9919
pro	-12.9921
apprend	-12.9921
inquiète	-12.9924
ientelle	-12.9925
pl	-12.9927
sociale	-12.9927
▁cho	-12.9927
autorise	-12.9927
héroïn	-12.9929
rincé	-12.993
active	-12.9931
abruti	-12.9931
vulnérable	-12.9931
ligne	-12.9933
▁scie	-12.9934
science	-12.9936
▁Défen	-12.9936
vaincu	-12.9936
range	-12.9937
insérer	-12.9938
ville	-12.9942
boule	-12.9942
commençons	-12.9943
explosion	-12.9945
identifier	-12.9945
alibi	-12.9945
chirurgie	-12.9946
étudie	-12.9946
histoire	-12.9949
cuire	-12.995
apprendre	-12.9951
œufs	-12.9952
infirmière	-12.9953
chère	-12.9953
Don	-12.9953
inquiét	-12.9954
lade	-12.9955
jure	-12.9955
fait	-12.9955
▁remarque	-12.9956
▁sév	-12.9957
pension	-12.9957
émotif	-12.9957
branché	-12.9958
exclu	-12.9958
échouer	-12.9959
affreuse	-12.996
▁mourrai	-12.996
poule	-12.996
fidèle	-12.9961
▁botte	-12.9962
auto	-12.9963
enregistr	-12.9963
ttezle	-12.9963
abandonner	-12.9964
prévisible	-12.9964
présente	-12.9965
indice	-12.9965
chanteur	-12.9967
cierge	-12.9968
interven	-12.9969
efficace	-12.9969
exact	-12.9969
assis	-12.997
appartement	-12.997
grave	-12.9971
sept	-12.9971
▁annul	-12.9972
grandi	-12.9972
devant	-12.9973
entend	-12.9973
ressenti	-12.9973
vêtements	-12.9974
ordinateur	-12.9974
dommage	-12.9974
ennuis	-12.9974
avocat	-12.9974
bain	-12.9975
uclé	-12.9975
rrière	-12.9975
opinion	-12.9976
occupée	-12.9976
heureuse	-12.9976
accident	-12.9976
certain	-12.9977
sujet	-12.9977
dingue	-12.9977
courir	-12.9977
photo	-12.9977
dormir	-12.9978
chemin	-12.9978
Un	-12.9978
différent	-12.9979
amusant	-12.9979
tourne	-12.9981
mange	-12.9981
âge	-12.9982
amener	-12.9983
got	-12.9984
donne	-12.9985
oins	-12.9985
pour	-12.9986
▁sabo	-12.999
▁Déjeun	-12.999
produi	-12.999
triste	-12.9991
donner	-12.9992
cassé	-12.9994
monté	-12.9996
▁Char	-12.9996
ige	-12.9997
▁prévenan	-13
vu	-13.0001
▁écriv	-13.0002
accept	-13.0002
uvris	-13.0002
pire	-13.0003
route	-13.0007
▁bâ	-13.0014
ving	-13.0019
stic	-13.002
fils	-13.0025
ndons	-13.0029
▁sava	-13.0032
cord	-13.0034
oubli	-13.0035
lave	-13.0037
▁bienveillant	-13.0038
xcellent	-13.0039
avis	-13.004
▁écr	-13.0043
▁Distribue	-13.0043
▁regret	-13.0047
chose	-13.0047
▁pourrie	-13.0048
▁Serr	-13.005
ccept	-13.0051
▁dépêch	-13.0052
pargne	-13.0054
▁ém	-13.0055
iat	-13.0057
▁adorera	-13.006
ousse	-13.0061
▁déb	-13.0061
peur	-13.0064
sol	-13.0067
arriver	-13.0069
mandé	-13.0069
▁personn	-13.0069
▁entraîn	-13.0074
▁sourc	-13.0076
▁rép	-13.0078
êcher	-13.0078
ardiner	-13.0079
▁pleur	-13.0079
hier	-13.0083
▁obtiendr	-13.0084
tiré	-13.0084
fréné	-13.0087
▁couver	-13.009
▁pratiqu	-13.0091
▁arrogan	-13.0095
▁crédi	-13.0095
▁évanoui	-13.0098
▁déchaîn	-13.0099
▁fortuné	-13.0099
▁modifi	-13.01
▁dégag	-13.01
▁symp	-13.0102
▁désert	-13.0102
▁confort	-13.0103
▁crè	-13.0108
équence	-13.0108
▁dérangera	-13.0109
▁verbalis	-13.0109
ème	-13.0111
senti	-13.0114
ond	-13.0115
▁croya	-13.0116
habiller	-13.0116
▁U	-13.0118
▁téléphon	-13.0119
itan	-13.012
impressionne	-13.012
▁recommand	-13.0121
parais	-13.0126
ucher	-13.0128
lieu	-13.0128
▁narrivera	-13.0128
dique	-13.0129
▁disputé	-13.013
▁souffla	-13.0136
mandes	-13.0137
▁casset	-13.0137
▁désespér	-13.0139
▁prom	-13.0141
vingt	-13.0142
▁kidnapp	-13.0143
▁consult	-13.0143
ctuellement	-13.0143
▁pourri	-13.0144
▁audac	-13.0144
poste	-13.0145
▁circu	-13.0146
roba	-13.0149
ran	-13.015
insi	-13.015
▁dépl	-13.015
fu	-13.015
▁attaqu	-13.015
▁deviendra	-13.0152
tribu	-13.0152
▁largu	-13.0153
▁concer	-13.0153
▁total	-13.0154
▁surpass	-13.0156
▁caiss	-13.0156
▁mapp	-13.0156
▁disais	-13.0157
▁souv	-13.0158
obscur	-13.0158
▁stupid	-13.0159
incapa	-13.0159
▁sauron	-13.0159
chos	-13.016
▁Ignor	-13.0161
▁assiette	-13.0161
viron	-13.0162
▁emprunte	-13.0162
emmerde	-13.0163
tribue	-13.0164
thm	-13.0166
logie	-13.0167
▁simpl	-13.0168
épuis	-13.0168
▁têt	-13.0169
otte	-13.017
▁Ouvr	-13.0171
▁débrouill	-13.0171
▁Aujourd	-13.0173
▁Remett	-13.0174
▁lécout	-13.0174
▁bross	-13.0174
î	-13.0175
▁support	-13.0176
▁captur	-13.0177
▁signifi	-13.0179
guère	-13.018
▁vill	-13.018
jection	-13.018
▁libr	-13.018
▁terrifi	-13.0182
▁ranc	-13.0182
veill	-13.0182
brou	-13.0185
abord	-13.0185
▁cell	-13.0186
▁chauss	-13.0186
▁chambr	-13.0186
monstr	-13.0187
loi	-13.019
expert	-13.0191
▁quarant	-13.0191
crivez	-13.0192
rouve	-13.0193
▁protége	-13.0195
effectue	-13.0195
▁compren	-13.0196
ussi	-13.0196
▁diverti	-13.0197
▁bronz	-13.0199
▁permet	-13.02
▁hôte	-13.02
▁haï	-13.0201
▁réside	-13.0202
▁rang	-13.0203
▁dégoût	-13.0203
apprendrai	-13.0204
▁affai	-13.0204
œu	-13.0204
▁bron	-13.0205
édite	-13.0205
▁bru	-13.0205
▁accepte	-13.0205
▁maltrait	-13.0205
articul	-13.0205
▁libér	-13.0206
Valenti	-13.0206
hou	-13.0206
▁sollicit	-13.0206
▁suspend	-13.0206
▁pomm	-13.0206
▁mexcuse	-13.0206
arié	-13.0206
▁plag	-13.0207
▁provis	-13.0208
▁décéd	-13.0208
▁piég	-13.0208
▁grim	-13.0208
▁motiv	-13.0209
▁recrut	-13.0209
chetez	-13.0209
▁énerv	-13.0209
▁bourr	-13.0209
▁Ajoute	-13.0209
▁Inspire	-13.0209
▁décroch	-13.021
réquent	-13.0211
oblig	-13.0211
▁publi	-13.0211
dem	-13.0213
▁lapp	-13.0213
▁tembrasse	-13.0214
nze	-13.0214
▁déloya	-13.0214
▁Rapp	-13.0214
évanouir	-13.0214
▁Repose	-13.0216
▁boulang	-13.0216
genouill	-13.0217
adolescent	-13.0217
érieusement	-13.0217
dieu	-13.0217
▁Achet	-13.0217
▁divertiss	-13.0217
▁informati	-13.0218
▁rembours	-13.0218
mplement	-13.0218
ascenseur	-13.0218
▁débarrasser	-13.0218
▁petitdéjeun	-13.0219
▁stopp	-13.0219
▁vêt	-13.0219
▁survéc	-13.0219
▁chât	-13.0219
fforce	-13.0219
▁princip	-13.022
nfile	-13.022
haus	-13.022
▁soudaine	-13.022
▁enseigna	-13.0221
▁différe	-13.0221
vér	-13.0221
▁éléga	-13.0221
▁pluvieu	-13.0221
▁patie	-13.0221
interdi	-13.0221
ctement	-13.0222
▁Nél	-13.0222
mplem	-13.0222
égoci	-13.0222
damnés	-13.0222
eignis	-13.0223
phras	-13.0223
graph	-13.0223
▁spectac	-13.0223
orat	-13.0223
▁amère	-13.0223
qualifié	-13.0224
vitez	-13.0224
rotège	-13.0224
remière	-13.0224
onfectionne	-13.0224
▁déva	-13.0224
agno	-13.0224
▁interv	-13.0224
▁Év	-13.0224
usulman	-13.0224
▁fantas	-13.0225
agnifique	-13.0225
ignon	-13.0225
och	-13.0225
▁siffl	-13.0225
▁vra	-13.0225
fiqu	-13.0225
onstruis	-13.0225
omprendstu	-13.0225
▁agac	-13.0225
uches	-13.0225
honor	-13.0225
chaîné	-13.0225
ménager	-13.0225
▁Refais	-13.0226
élic	-13.0226
▁chauff	-13.0226
▁dérou	-13.0226
inalement	-13.0226
rançais	-13.0226
▁organ	-13.0226
▁sécuri	-13.0226
▁débarrassa	-13.0226
▁joindra	-13.0226
autorisa	-13.0226
éveille	-13.0227
ssemble	-13.0227
ormidable	-13.0227
▁judicieuse	-13.0227
▁Téléphone	-13.0227
ndant	-13.0227
inute	-13.0227
aoul	-13.0227
▁harc	-13.0227
iscuit	-13.0227
izarre	-13.0227
ébran	-13.0227
êver	-13.0227
▁voudriez	-13.0227
astronomi	-13.0227
chonner	-13.0227
▁incroya	-13.0227
éloign	-13.0227
énial	-13.0227
▁sapp	-13.0227
cycle	-13.0227
pitoyable	-13.0227
bjective	-13.0227
aptur	-13.0227
lori	-13.0227
▁indisp	-13.0227
▁opportuni	-13.0227
▁Débr	-13.0228
▁bourg	-13.0228
▁signa	-13.0228
iffé	-13.0228
tômes	-13.0228
▁éva	-13.0228
plicat	-13.0228
scepti	-13.0228
▁Imp	-13.0228
▁maigri	-13.0228
rayée	-13.0228
▁Appren	-13.0228
▁siè	-13.0228
▁véri	-13.0228
horr	-13.0228
opérer	-13.0228
ncroyable	-13.0228
fatig	-13.0228
nspecte	-13.0228
▁Recr	-13.0228
▁biblioth	-13.0228
ffront	-13.0228
longée	-13.0228
trépid	-13.0228
Jac	-13.0228
cô	-13.0228
mpossible	-13.0228
ficiel	-13.0228
inju	-13.0228
lâ	-13.0228
▁gym	-13.0228
▁Rév	-13.0228
refo	-13.0228
socié	-13.0228
▁Linc	-13.0228
▁diriez	-13.0228
duirai	-13.0228
immuni	-13.0228
scendant	-13.0228
élection	-13.0228
▁grat	-13.0228
iba	-13.0228
ormément	-13.0228
einard	-13.0228
stroph	-13.0228
endrier	-13.0228
▁dipl	-13.0228
rogne	-13.0228
houette	-13.0228
▁hib	-13.0228
arv	-13.0228
ténu	-13.0228
▁enlac	-13.0228
versaire	-13.0228
▁lastro	-13.0228
îtes	-13.0228
ourage	-13.0228
cidente	-13.0229
hone	-13.0229
eureuse	-13.0229
dhist	-13.0229
▁lembra	-13.0229
îne	-13.0229
▁susp	-13.0229
▁bran	-13.0229
▁arti	-13.0229
latan	-13.0229
▁hall	-13.0229
▁déco	-13.023
pathi	-13.023
bourse	-13.023
âte	-13.023
▁flan	-13.023
négoci	-13.023
urge	-13.023
ecte	-13.023
orise	-13.023
igués	-13.023
encontre	-13.023
▁Dép	-13.0231
▁limb	-13.0231
nué	-13.0231
▁camé	-13.0231
ulti	-13.0231
fléch	-13.0231
assées	-13.0231
▁identi	-13.0231
pillon	-13.0232
▁coca	-13.0232
agnol	-13.0232
rd	-13.0233
culaire	-13.0233
oquer	-13.0233
mauv	-13.0234
Angl	-13.0234
assonsnous	-13.0234
▁stop	-13.0235
▁Lauto	-13.0235
chois	-13.0235
▁cham	-13.0235
▁dévo	-13.0236
bots	-13.0236
con	-13.0236
▁boir	-13.0236
▁dexpé	-13.0237
ditionnel	-13.0237
scén	-13.0237
▁dabo	-13.0237
▁Beau	-13.0238
han	-13.024
rdant	-13.024
tacle	-13.0241
alte	-13.0241
▁prob	-13.0242
▁lautor	-13.0242
▁redo	-13.0243
▁fam	-13.0243
▁rame	-13.0243
▁lèvera	-13.0243
usine	-13.0246
▁ambi	-13.0246
▁embau	-13.0246
cieuse	-13.0246
▁raff	-13.0247
fré	-13.0248
ision	-13.0248
▁engag	-13.0248
explication	-13.0249
▁rap	-13.0249
▁renc	-13.0249
▁létag	-13.0249
liers	-13.025
ding	-13.025
▁ann	-13.0251
lli	-13.0251
oirée	-13.0251
▁sag	-13.0253
▁écl	-13.0253
accroché	-13.0254
▁disco	-13.0254
▁désh	-13.0254
▁doubl	-13.0255
▁lachète	-13.0255
▁fol	-13.0257
▁vidé	-13.0258
▁léta	-13.0259
▁dissi	-13.0259
nstruit	-13.0261
▁loya	-13.0261
▁Tente	-13.0262
▁pendu	-13.0262
▁fal	-13.0263
calé	-13.0264
▁insou	-13.0264
orteil	-13.0264
ègle	-13.0264
▁termi	-13.0265
oula	-13.0266
▁remu	-13.0266
ploie	-13.0267
mence	-13.0267
▁reg	-13.0268
rigé	-13.0268
▁ouvr	-13.0269
oleur	-13.0271
naissance	-13.0273
▁remplac	-13.0274
▁échau	-13.0275
▁Comp	-13.0275
fuser	-13.0277
erastu	-13.0278
▁honn	-13.0278
chées	-13.0279
▁fru	-13.028
veillé	-13.028
▁impliqu	-13.028
▁soud	-13.0283
▁toxi	-13.0285
oph	-13.0287
inue	-13.0288
▁fianc	-13.0289
▁dal	-13.029
ntrez	-13.0291
eurent	-13.0292
▁mappa	-13.0293
ouilletoi	-13.0293
émé	-13.0293
▁totale	-13.0294
rmez	-13.0294
cule	-13.0294
▁pardonne	-13.0295
▁Ro	-13.0295
▁nave	-13.0296
▁tab	-13.0299
diant	-13.0301
tuellement	-13.0302
▁voudra	-13.0305
▁pol	-13.0306
▁croyez	-13.0308
ivré	-13.0309
▁rencontra	-13.031
▁bât	-13.031
thme	-13.031
▁bor	-13.0314
esseur	-13.0314
atiques	-13.0314
pation	-13.0315
▁parent	-13.0315
cita	-13.0316
niste	-13.0316
rçons	-13.0322
eint	-13.0328
gote	-13.0328
▁froi	-13.033
tég	-13.0338
▁raf	-13.0341
uisez	-13.0342
riv	-13.0345
▁tattendra	-13.0345
ini	-13.0347
▁souciera	-13.0349
upe	-13.035
▁pardonn	-13.035
▁som	-13.035
usion	-13.0351
iable	-13.0351
hab	-13.0352
rari	-13.0352
▁tem	-13.0354
ifiée	-13.0355
porté	-13.0364
▁Form	-13.0366
urner	-13.0368
▁lavent	-13.0371
sonne	-13.0374
▁touris	-13.0376
rène	-13.0377
nçon	-13.0378
anché	-13.0379
ndue	-13.038
▁Travaillez	-13.0381
ôté	-13.0382
▁univers	-13.0387
ivra	-13.0389
▁enfrei	-13.039
▁Lam	-13.0397
▁indiqua	-13.0402
▁conce	-13.0402
mme	-13.0402
▁Gr	-13.0408
rtis	-13.0408
gy	-13.041
▁anal	-13.0411
résist	-13.0412
▁surmen	-13.0414
raître	-13.0416
rûle	-13.0416
▁embr	-13.0421
chanté	-13.0424
sac	-13.0432
▁déton	-13.0445
▁sing	-13.0452
▁tenta	-13.0455
érons	-13.0456
uronsnous	-13.0459
endez	-13.0459
▁Gé	-13.0461
▁Lavez	-13.0466
▁vag	-13.0469
ayés	-13.0469
▁dessine	-13.0476
▁évita	-13.0479
chons	-13.0479
▁courons	-13.048
icot	-13.0482
ple	-13.0487
nverse	-13.0488
▁impro	-13.0489
osezvous	-13.049
éné	-13.049
▁effr	-13.0496
▁tic	-13.0496
▁utilisa	-13.0498
▁bouff	-13.0498
miné	-13.0502
▁vid	-13.0504
▁séva	-13.0506
oser	-13.0515
▁É	-13.0516
abit	-13.0519
osses	-13.052
sied	-13.0521
olé	-13.0524
aimezvous	-13.0532
▁causera	-13.0535
imagine	-13.0536
▁destiné	-13.0537
iti	-13.0537
os	-13.0538
▁obéis	-13.0539
▁coupai	-13.0541
▁minst	-13.0542
uyons	-13.0544
lonsnous	-13.0548
▁amica	-13.055
tueux	-13.0561
uets	-13.0564
▁dA	-13.0564
▁prouve	-13.0572
▁rempla	-13.0585
tar	-13.0591
▁lh	-13.0591
▁régi	-13.0593
fer	-13.0594
dette	-13.0594
▁cél	-13.0611
▁télép	-13.0613
étaire	-13.0614
▁courr	-13.0615
ix	-13.0628
rich	-13.0633
▁irez	-13.0634
ompa	-13.0635
▁quête	-13.0639
évitable	-13.064
opt	-13.0645
▁répar	-13.0647
▁réserva	-13.0648
▁contrôl	-13.0651
▁Pré	-13.0653
▁vitr	-13.0658
▁moust	-13.0659
accompagnera	-13.0661
ographi	-13.067
nation	-13.0675
▁explique	-13.0677
▁oppos	-13.0679
▁opt	-13.0682
▁aimera	-13.0688
▁cost	-13.0701
▁pourra	-13.0711
impôts	-13.0712
origina	-13.0723
sidéré	-13.0732
filé	-13.0734
ï	-14.3763
G	-14.3764
U	-14.3765
œ	-14.3766
ô	-14.3767
R	-14.3768
O	-14.3769
ç	-14.377
Q	-14.3771
L	-14.3772
è	-14.3773
ê	-14.3774
N	-14.3775
j	-14.3776
T	-14.3777
q	-14.3778
